{
  "version": "1.0",
  "truncation": null,
  "padding": null,
  "added_tokens": [
    {
      "id": 0,
      "content": "<unk>",
      "single_word": false,
      "lstrip": false,
      "rstrip": false,
      "normalized": false,
      "special": true
    },
    {
      "id": 20000,
      "content": "\n",
      "single_word": false,
      "lstrip": false,
      "rstrip": false,
      "normalized": false,
      "special": false
    }
  ],
  "normalizer": {
    "type": "Sequence",
    "normalizers": [
      {
        "type": "NFD"
      },
      {
        "type": "Lowercase"
      },
      {
        "type": "StripAccents"
      }
    ]
  },
  "pre_tokenizer": {
    "type": "Whitespace"
  },
  "post_processor": null,
  "decoder": {
    "type": "WordPiece",
    "prefix": "##",
    "cleanup": true
  },
  "model": {
    "type": "WordPiece",
    "unk_token": "<unk>",
    "continuing_subword_prefix": "##",
    "max_input_chars_per_word": 100,
    "vocab": {
      "<unk>": 0,
      "!": 1,
      "\"": 2,
      "#": 3,
      "$": 4,
      "%": 5,
      "&": 6,
      "'": 7,
      "(": 8,
      ")": 9,
      "*": 10,
      "+": 11,
      ",": 12,
      "-": 13,
      ".": 14,
      "/": 15,
      "0": 16,
      "1": 17,
      "2": 18,
      "3": 19,
      "4": 20,
      "5": 21,
      "6": 22,
      "7": 23,
      "8": 24,
      "9": 25,
      ":": 26,
      ";": 27,
      "=": 28,
      "?": 29,
      "@": 30,
      "[": 31,
      "\\": 32,
      "]": 33,
      "_": 34,
      "a": 35,
      "b": 36,
      "c": 37,
      "d": 38,
      "e": 39,
      "f": 40,
      "g": 41,
      "h": 42,
      "i": 43,
      "j": 44,
      "k": 45,
      "l": 46,
      "m": 47,
      "n": 48,
      "o": 49,
      "p": 50,
      "q": 51,
      "r": 52,
      "s": 53,
      "t": 54,
      "u": 55,
      "v": 56,
      "w": 57,
      "x": 58,
      "y": 59,
      "z": 60,
      "~": 61,
      "": 62,
      "£": 63,
      "¥": 64,
      "°": 65,
      "–": 66,
      "—": 67,
      "‘": 68,
      "’": 69,
      "“": 70,
      "”": 71,
      "′": 72,
      "、": 73,
      "。": 74,
      "##m": 75,
      "##u": 76,
      "##t": 77,
      "##c": 78,
      "##h": 79,
      "##r": 80,
      "##i": 81,
      "##n": 82,
      "##g": 83,
      "##s": 84,
      "##e": 85,
      "##a": 86,
      "##l": 87,
      "##k": 88,
      "##d": 89,
      "##o": 90,
      "##b": 91,
      "##y": 92,
      "##v": 93,
      "##8": 94,
      "##5": 95,
      "##w": 96,
      "##p": 97,
      "##f": 98,
      "##z": 99,
      "##6": 100,
      "##0": 101,
      "##x": 102,
      "##j": 103,
      "##'": 104,
      "##q": 105,
      "##1": 106,
      "##9": 107,
      "##3": 108,
      "##4": 109,
      "##7": 110,
      "##2": 111,
      "##;": 112,
      "##-": 113,
      "##,": 114,
      "##!": 115,
      "##:": 116,
      "##?": 117,
      "##.": 118,
      "##]": 119,
      "##_": 120,
      "##=": 121,
      "##ou": 122,
      "th": 123,
      "##er": 124,
      "##in": 125,
      "##eou": 126,
      "__": 127,
      "##__": 128,
      "##eou__": 129,
      "__eou__": 130,
      "the": 131,
      "##at": 132,
      "##or": 133,
      "you": 134,
      "##an": 135,
      "##en": 136,
      "##es": 137,
      "##on": 138,
      "##ar": 139,
      "##ll": 140,
      "to": 141,
      "an": 142,
      "##ing": 143,
      "##is": 144,
      "and": 145,
      "##it": 146,
      "##re": 147,
      "##us": 148,
      "##om": 149,
      "##et": 150,
      "##ve": 151,
      "of": 152,
      "wh": 153,
      "##ow": 154,
      "##as": 155,
      "##ed": 156,
      "##ot": 157,
      "in": 158,
      "it": 159,
      "be": 160,
      "##le": 161,
      "ha": 162,
      "##ic": 163,
      "##ay": 164,
      "##ut": 165,
      "is": 166,
      "that": 167,
      "we": 168,
      "for": 169,
      "he": 170,
      "##ld": 171,
      "##ke": 172,
      "##al": 173,
      "##ere": 174,
      "##ir": 175,
      "my": 176,
      "me": 177,
      "sh": 178,
      "##ch": 179,
      "do": 180,
      "##oo": 181,
      "##gh": 182,
      "##ter": 183,
      "##ur": 184,
      "##ce": 185,
      "##se": 186,
      "##ent": 187,
      "on": 188,
      "have": 189,
      "##im": 190,
      "##ith": 191,
      "##st": 192,
      "re": 193,
      "##id": 194,
      "your": 195,
      "##ill": 196,
      "st": 197,
      "##all": 198,
      "with": 199,
      "what": 200,
      "pr": 201,
      "##ad": 202,
      "not": 203,
      "li": 204,
      "this": 205,
      "##ly": 206,
      "##ould": 207,
      "so": 208,
      "##ght": 209,
      "##ome": 210,
      "##am": 211,
      "but": 212,
      "se": 213,
      "are": 214,
      "##ion": 215,
      "can": 216,
      "##ess": 217,
      "##th": 218,
      "##ver": 219,
      "as": 220,
      "ne": 221,
      "go": 222,
      "ch": 223,
      "##ri": 224,
      "##ry": 225,
      "will": 226,
      "su": 227,
      "##ood": 228,
      "##ard": 229,
      "##io": 230,
      "##ct": 231,
      "##and": 232,
      "##est": 233,
      "##ight": 234,
      "##ra": 235,
      "no": 236,
      "##ck": 237,
      "##ant": 238,
      "de": 239,
      "##il": 240,
      "en": 241,
      "king": 242,
      "like": 243,
      "##ge": 244,
      "##ake": 245,
      "all": 246,
      "at": 247,
      "##ust": 248,
      "##ol": 249,
      "##ain": 250,
      "ex": 251,
      "there": 252,
      "how": 253,
      "##ore": 254,
      "kn": 255,
      "thou": 256,
      "##ius": 257,
      "##pe": 258,
      "##un": 259,
      "his": 260,
      "le": 261,
      "good": 262,
      "fr": 263,
      "##ord": 264,
      "##ul": 265,
      "##ath": 266,
      "##rat": 267,
      "##oun": 268,
      "if": 269,
      "##ink": 270,
      "ab": 271,
      "than": 272,
      "ll": 273,
      "him": 274,
      "com": 275,
      "##end": 276,
      "##our": 277,
      "don": 278,
      "##ine": 279,
      "her": 280,
      "##ast": 281,
      "##ell": 282,
      "or": 283,
      "well": 284,
      "know": 285,
      "would": 286,
      "##ind": 287,
      "lo": 288,
      "##out": 289,
      "wor": 290,
      "see": 291,
      "here": 292,
      "nar": 293,
      "##rator": 294,
      "was": 295,
      "narrator": 296,
      "they": 297,
      "yes": 298,
      "mar": 299,
      "am": 300,
      "cl": 301,
      "##op": 302,
      "##ble": 303,
      "##os": 304,
      "qu": 305,
      "al": 306,
      "our": 307,
      "think": 308,
      "##oth": 309,
      "by": 310,
      "##ff": 311,
      "tim": 312,
      "con": 313,
      "##um": 314,
      "up": 315,
      "##ers": 316,
      "##ak": 317,
      "##ook": 318,
      "##el": 319,
      "##art": 320,
      "##ice": 321,
      "##ich": 322,
      "let": 323,
      "tr": 324,
      "##ally": 325,
      "now": 326,
      "about": 327,
      "##ive": 328,
      "one": 329,
      "she": 330,
      "un": 331,
      "br": 332,
      "##ost": 333,
      "man": 334,
      "sir": 335,
      "##ort": 336,
      "did": 337,
      "some": 338,
      "##pp": 339,
      "pl": 340,
      "from": 341,
      "##ia": 342,
      "##uch": 343,
      "get": 344,
      "##ong": 345,
      "##one": 346,
      "##ate": 347,
      "lord": 348,
      "##ven": 349,
      "##ie": 350,
      "ar": 351,
      "##ery": 352,
      "any": 353,
      "##ase": 354,
      "out": 355,
      "pro": 356,
      "when": 357,
      "hen": 358,
      "##ist": 359,
      "then": 360,
      "come": 361,
      "thank": 362,
      "##ag": 363,
      "just": 364,
      "##ish": 365,
      "more": 366,
      "us": 367,
      "time": 368,
      "##ame": 369,
      "fa": 370,
      "too": 371,
      "ple": 372,
      "##ation": 373,
      "##ass": 374,
      "very": 375,
      "##ick": 376,
      "look": 377,
      "fir": 378,
      "shall": 379,
      "may": 380,
      "them": 381,
      "thy": 382,
      "henry": 383,
      "first": 384,
      "jo": 385,
      "##ig": 386,
      "should": 387,
      "take": 388,
      "##own": 389,
      "##der": 390,
      "gre": 391,
      "##ound": 392,
      "##ea": 393,
      "fe": 394,
      "right": 395,
      "##ous": 396,
      "want": 397,
      "hel": 398,
      "much": 399,
      "##ud": 400,
      "ag": 401,
      "la": 402,
      "ca": 403,
      "##ep": 404,
      "##lf": 405,
      "##em": 406,
      "##fe": 407,
      "say": 408,
      "love": 409,
      "##ue": 410,
      "why": 411,
      "sp": 412,
      "make": 413,
      "off": 414,
      "ever": 415,
      "please": 416,
      "##eth": 417,
      "who": 418,
      "really": 419,
      "spe": 420,
      "where": 421,
      "##ure": 422,
      "##ance": 423,
      "day": 424,
      "du": 425,
      "ro": 426,
      "##ber": 427,
      "##ces": 428,
      "##ack": 429,
      "bl": 430,
      "tw": 431,
      "oth": 432,
      "need": 433,
      "work": 434,
      "fl": 435,
      "gl": 436,
      "per": 437,
      "which": 438,
      "comp": 439,
      "##ity": 440,
      "ve": 441,
      "##een": 442,
      "thee": 443,
      "sa": 444,
      "##use": 445,
      "could": 446,
      "##ment": 447,
      "ok": 448,
      "##per": 449,
      "##ress": 450,
      "##age": 451,
      "##ars": 452,
      "##ro": 453,
      "##ies": 454,
      "##ence": 455,
      "ant": 456,
      "had": 457,
      "duke": 458,
      "oh": 459,
      "ad": 460,
      "##ond": 461,
      "sure": 462,
      "##way": 463,
      "great": 464,
      "##orn": 465,
      "##are": 466,
      "##ach": 467,
      "bo": 468,
      "their": 469,
      "##ount": 470,
      "af": 471,
      "sw": 472,
      "tell": 473,
      "ho": 474,
      "##ite": 475,
      "fri": 476,
      "enter": 477,
      "##pt": 478,
      "##ian": 479,
      "new": 480,
      "##self": 481,
      "going": 482,
      "mad": 483,
      "ser": 484,
      "give": 485,
      "bu": 486,
      "##ady": 487,
      "##day": 488,
      "co": 489,
      "were": 490,
      "help": 491,
      "##other": 492,
      "been": 493,
      "im": 494,
      "##ph": 495,
      "##fore": 496,
      "these": 497,
      "must": 498,
      "##row": 499,
      "bet": 500,
      "##ree": 501,
      "##ide": 502,
      "sc": 503,
      "di": 504,
      "call": 505,
      "##ings": 506,
      "lu": 507,
      "##urn": 508,
      "queen": 509,
      "##ather": 510,
      "dr": 511,
      "##ci": 512,
      "pe": 513,
      "every": 514,
      "##ful": 515,
      "anton": 516,
      "##ert": 517,
      "##let": 518,
      "##ves": 519,
      "##iz": 520,
      "mo": 521,
      "##ab": 522,
      "again": 523,
      "##ince": 524,
      "rich": 525,
      "##cester": 526,
      "hi": 527,
      "##ool": 528,
      "dis": 529,
      "som": 530,
      "##ft": 531,
      "##man": 532,
      "pre": 533,
      "ye": 534,
      "##cc": 535,
      "most": 536,
      "long": 537,
      "##les": 538,
      "sec": 539,
      "gu": 540,
      "##ving": 541,
      "got": 542,
      "way": 543,
      "##qu": 544,
      "yet": 545,
      "##itt": 546,
      "##ough": 547,
      "after": 548,
      "over": 549,
      "speak": 550,
      "##ang": 551,
      "##ose": 552,
      "des": 553,
      "part": 554,
      "##ise": 555,
      "men": 556,
      "##ave": 557,
      "po": 558,
      "two": 559,
      "has": 560,
      "##able": 561,
      "##ans": 562,
      "does": 563,
      "gent": 564,
      "##oucester": 565,
      "gloucester": 566,
      "cour": 567,
      "such": 568,
      "##to": 569,
      "bel": 570,
      "bus": 571,
      "inter": 572,
      "hath": 573,
      "other": 574,
      "hand": 575,
      "##ii": 576,
      "##ek": 577,
      "friend": 578,
      "wr": 579,
      "ham": 580,
      "##ork": 581,
      "##ople": 582,
      "gentle": 583,
      "people": 584,
      "##thing": 585,
      "mark": 586,
      "leon": 587,
      "never": 588,
      "##ign": 589,
      "par": 590,
      "##av": 591,
      "luc": 592,
      "tal": 593,
      "upon": 594,
      "sm": 595,
      "many": 596,
      "sor": 597,
      "hamlet": 598,
      "gr": 599,
      "before": 600,
      "nor": 601,
      "##li": 602,
      "##unt": 603,
      "##wn": 604,
      "pa": 605,
      "back": 606,
      "card": 607,
      "##ens": 608,
      "em": 609,
      "night": 610,
      "##ire": 611,
      "##inc": 612,
      "##be": 613,
      "mon": 614,
      "##xt": 615,
      "el": 616,
      "che": 617,
      "fo": 618,
      "ke": 619,
      "bre": 620,
      "##any": 621,
      "second": 622,
      "app": 623,
      "cle": 624,
      "find": 625,
      "even": 626,
      "..": 627,
      "##ip": 628,
      "better": 629,
      "thanks": 630,
      "##lo": 631,
      "richard": 632,
      "lear": 633,
      "fal": 634,
      "##atch": 635,
      "serv": 636,
      "##ile": 637,
      "tra": 638,
      "down": 639,
      "ear": 640,
      "...": 641,
      "##ca": 642,
      "##ace": 643,
      "hon": 644,
      "res": 645,
      "won": 646,
      "ma": 647,
      "mist": 648,
      "york": 649,
      "##ty": 650,
      "antony": 651,
      "kind": 652,
      "hear": 653,
      "only": 654,
      "##gar": 655,
      "lot": 656,
      "car": 657,
      "week": 658,
      "play": 659,
      "swe": 660,
      "##ms": 661,
      "name": 662,
      "sorry": 663,
      "hot": 664,
      "##ect": 665,
      "ph": 666,
      "char": 667,
      "##aff": 668,
      "##ild": 669,
      "##hn": 670,
      "ed": 671,
      "##oss": 672,
      "yea": 673,
      "god": 674,
      "count": 675,
      "##ron": 676,
      "john": 677,
      "##ittle": 678,
      "tis": 679,
      "##ange": 680,
      "##port": 681,
      "little": 682,
      "made": 683,
      "##iss": 684,
      "room": 685,
      "cla": 686,
      "cr": 687,
      "act": 688,
      "meet": 689,
      "str": 690,
      "cor": 691,
      "ey": 692,
      "last": 693,
      "heart": 694,
      "##ouse": 695,
      "##ina": 696,
      "happ": 697,
      "cont": 698,
      "keep": 699,
      "acc": 700,
      "put": 701,
      "sal": 702,
      "##so": 703,
      "company": 704,
      "##gl": 705,
      "show": 706,
      "lady": 707,
      "##ething": 708,
      "into": 709,
      "something": 710,
      "old": 711,
      "##cuse": 712,
      "brut": 713,
      "##ago": 714,
      "tit": 715,
      "pay": 716,
      "brutus": 717,
      "##orrow": 718,
      "##ness": 719,
      "##--": 720,
      "mistress": 721,
      "##oney": 722,
      "rem": 723,
      "still": 724,
      "##iol": 725,
      "##ene": 726,
      "gra": 727,
      "##ions": 728,
      "##entio": 729,
      "mine": 730,
      "##aster": 731,
      "iago": 732,
      "next": 733,
      "##ull": 734,
      "##og": 735,
      "comm": 736,
      "prince": 737,
      "##hing": 738,
      "war": 739,
      "##ater": 740,
      "away": 741,
      "try": 742,
      "proble": 743,
      "yeah": 744,
      "best": 745,
      "under": 746,
      "##ugh": 747,
      "today": 748,
      "##int": 749,
      "ros": 750,
      "course": 751,
      "id": 752,
      "sound": 753,
      "morn": 754,
      "##staff": 755,
      "falstaff": 756,
      "##ctor": 757,
      "bir": 758,
      "##ents": 759,
      "##come": 760,
      "house": 761,
      "##ious": 762,
      "feel": 763,
      "job": 764,
      "##ower": 765,
      "rome": 766,
      "##ward": 767,
      "life": 768,
      "##inal": 769,
      "home": 770,
      "anything": 771,
      "use": 772,
      "tom": 773,
      "ask": 774,
      "sl": 775,
      "##ger": 776,
      "##und": 777,
      "mean": 778,
      "art": 779,
      "##ronic": 780,
      "claud": 781,
      "father": 782,
      "cass": 783,
      "te": 784,
      "own": 785,
      "exe": 786,
      "morning": 787,
      "pet": 788,
      "gentleman": 789,
      "##ello": 790,
      "fair": 791,
      "true": 792,
      "##red": 793,
      "done": 794,
      "##ved": 795,
      "thought": 796,
      "jul": 797,
      "might": 798,
      "things": 799,
      "##ary": 800,
      "pol": 801,
      "##ually": 802,
      "hour": 803,
      "##anio": 804,
      "leave": 805,
      "mr": 806,
      "andronic": 807,
      "boy": 808,
      "high": 809,
      "andronicus": 810,
      "engl": 811,
      "word": 812,
      "##esar": 813,
      "buy": 814,
      "##ail": 815,
      "er": 816,
      "three": 817,
      "##ap": 818,
      "money": 819,
      "##olk": 820,
      "caesar": 821,
      "##ither": 822,
      "also": 823,
      "min": 824,
      "##iness": 825,
      "mind": 826,
      "didn": 827,
      "##by": 828,
      "nice": 829,
      "att": 830,
      "hope": 831,
      "stay": 832,
      "pres": 833,
      "world": 834,
      "wa": 835,
      "dep": 836,
      "##ition": 837,
      "nothing": 838,
      "##ee": 839,
      "##atter": 840,
      "stand": 841,
      "ii": 842,
      "hell": 843,
      "##fer": 844,
      "##akes": 845,
      "else": 846,
      "##for": 847,
      "##cy": 848,
      "those": 849,
      "exeunt": 850,
      "mer": 851,
      "thing": 852,
      "problem": 853,
      "master": 854,
      "talk": 855,
      "val": 856,
      "timon": 857,
      "place": 858,
      "beca": 859,
      "because": 860,
      "fine": 861,
      "hard": 862,
      "rosal": 863,
      "ap": 864,
      "suff": 865,
      "vinc": 866,
      "da": 867,
      "##ult": 868,
      "othello": 869,
      "sch": 870,
      "##ons": 871,
      "another": 872,
      "##cking": 873,
      "vincentio": 874,
      "hast": 875,
      "rest": 876,
      "##cus": 877,
      "exit": 878,
      "##ix": 879,
      "thr": 880,
      "##act": 881,
      "##ier": 882,
      "##iet": 883,
      "cardinal": 884,
      "fool": 885,
      "pass": 886,
      "mess": 887,
      "pu": 888,
      "clown": 889,
      "##ury": 890,
      "sy": 891,
      "set": 892,
      "##aven": 893,
      "##00": 894,
      "being": 895,
      "##ways": 896,
      "thir": 897,
      "sen": 898,
      "--": 899,
      "blood": 900,
      "leonat": 901,
      "gi": 902,
      "friends": 903,
      "ind": 904,
      "tri": 905,
      "##oy": 906,
      "##ors": 907,
      "pray": 908,
      "sweet": 909,
      "##anus": 910,
      "both": 911,
      "end": 912,
      "##ened": 913,
      "sou": 914,
      "turn": 915,
      "helen": 916,
      "bring": 917,
      "##ock": 918,
      "port": 919,
      "beg": 920,
      "wel": 921,
      "rec": 922,
      "always": 923,
      "head": 924,
      "##sp": 925,
      "start": 926,
      "wi": 927,
      "##ether": 928,
      "month": 929,
      "diff": 930,
      "wait": 931,
      "death": 932,
      "##land": 933,
      "check": 934,
      "##ines": 935,
      "##ham": 936,
      "said": 937,
      "##ily": 938,
      "##tes": 939,
      "##sw": 940,
      "##cl": 941,
      "days": 942,
      "interest": 943,
      "myself": 944,
      "titus": 945,
      "heaven": 946,
      "exp": 947,
      ",--": 948,
      "live": 949,
      "maybe": 950,
      "##ple": 951,
      "though": 952,
      "cann": 953,
      "year": 954,
      "##avius": 955,
      "##umber": 956,
      "cert": 957,
      "pros": 958,
      "cam": 959,
      "care": 960,
      "bad": 961,
      "##its": 962,
      "wom": 963,
      "read": 964,
      "page": 965,
      "welcome": 966,
      "business": 967,
      "kath": 968,
      "bra": 969,
      "##ys": 970,
      "same": 971,
      "##ss": 972,
      "##ash": 973,
      "hello": 974,
      "prosper": 975,
      "##ting": 976,
      "heard": 977,
      "cons": 978,
      "kathar": 979,
      "##inn": 980,
      "foll": 981,
      "pers": 982,
      "op": 983,
      "##ouch": 984,
      "##ought": 985,
      "cannot": 986,
      "bed": 987,
      "comes": 988,
      "##pect": 989,
      "youn": 990,
      "##ason": 991,
      "##dy": 992,
      "doth": 993,
      "##ieve": 994,
      "cur": 995,
      "book": 996,
      "##sh": 997,
      "##ute": 998,
      "years": 999,
      "tomorrow": 1000,
      "romeo": 1001,
      "##form": 1002,
      "bucking": 1003,
      "hor": 1004,
      "stud": 1005,
      "supp": 1006,
      "sounds": 1007,
      "buckingham": 1008,
      "##opat": 1009,
      "pur": 1010,
      "cleopat": 1011,
      "cleopatra": 1012,
      "##erd": 1013,
      "post": 1014,
      "ta": 1015,
      "reg": 1016,
      "hold": 1017,
      "eat": 1018,
      "eyes": 1019,
      "rosalind": 1020,
      "watch": 1021,
      "##oil": 1022,
      "helena": 1023,
      "##inius": 1024,
      "##ne": 1025,
      "margar": 1026,
      "##aking": 1027,
      "few": 1028,
      "food": 1029,
      "##icles": 1030,
      "coriol": 1031,
      "coriolanus": 1032,
      "wife": 1033,
      "cap": 1034,
      "##ank": 1035,
      "prot": 1036,
      "fear": 1037,
      "arm": 1038,
      "wrong": 1039,
      "margaret": 1040,
      "##vers": 1041,
      "sat": 1042,
      "enough": 1043,
      "portia": 1044,
      "prospero": 1045,
      "ay": 1046,
      "child": 1047,
      "doing": 1048,
      "scene": 1049,
      "ret": 1050,
      "bea": 1051,
      "##cell": 1052,
      "##elia": 1053,
      "honour": 1054,
      "##ience": 1055,
      "english": 1056,
      "drink": 1057,
      "office": 1058,
      "forg": 1059,
      "soon": 1060,
      "far": 1061,
      "son": 1062,
      "thus": 1063,
      "leontes": 1064,
      "big": 1065,
      "##ib": 1066,
      "certain": 1067,
      "fam": 1068,
      "madam": 1069,
      "##vel": 1070,
      "each": 1071,
      "##if": 1072,
      "late": 1073,
      "##vie": 1074,
      "order": 1075,
      "##uct": 1076,
      "##bl": 1077,
      "##aint": 1078,
      "quick": 1079,
      "servant": 1080,
      "cost": 1081,
      "sle": 1082,
      "##ates": 1083,
      "tea": 1084,
      "wal": 1085,
      "class": 1086,
      "wonder": 1087,
      "remem": 1088,
      "learn": 1089,
      "young": 1090,
      "##bury": 1091,
      "##ughter": 1092,
      "school": 1093,
      "quite": 1094,
      "brother": 1095,
      "follow": 1096,
      "mus": 1097,
      "##ram": 1098,
      "##ides": 1099,
      "##ict": 1100,
      "##ible": 1101,
      "##ins": 1102,
      "since": 1103,
      "pleas": 1104,
      "poor": 1105,
      "##iv": 1106,
      "believe": 1107,
      "idea": 1108,
      "bast": 1109,
      "##gg": 1110,
      "suffolk": 1111,
      "pericles": 1112,
      "##ac": 1113,
      "dear": 1114,
      "dec": 1115,
      "##ade": 1116,
      "bastard": 1117,
      "ter": 1118,
      "##ott": 1119,
      "sign": 1120,
      "while": 1121,
      "pand": 1122,
      "##sel": 1123,
      "full": 1124,
      "once": 1125,
      "matter": 1126,
      "sk": 1127,
      "biron": 1128,
      "##roke": 1129,
      "send": 1130,
      "troil": 1131,
      "through": 1132,
      "troilus": 1133,
      "conf": 1134,
      "iii": 1135,
      "##vol": 1136,
      "run": 1137,
      "ste": 1138,
      "petr": 1139,
      "free": 1140,
      "##ogen": 1141,
      "##ym": 1142,
      "imogen": 1143,
      "##ory": 1144,
      "##no": 1145,
      "##joy": 1146,
      "sold": 1147,
      "##ied": 1148,
      "beaut": 1149,
      "person": 1150,
      "##ated": 1151,
      "change": 1152,
      "##ark": 1153,
      "##uchio": 1154,
      "petruchio": 1155,
      "oct": 1156,
      "##enius": 1157,
      "antonio": 1158,
      "##enger": 1159,
      "isn": 1160,
      "happy": 1161,
      "air": 1162,
      "##gether": 1163,
      "juliet": 1164,
      "bes": 1165,
      "sil": 1166,
      "bear": 1167,
      "oft": 1168,
      "##ried": 1169,
      "vis": 1170,
      "ange": 1171,
      "imp": 1172,
      "dou": 1173,
      "looks": 1174,
      "fin": 1175,
      "sur": 1176,
      "pret": 1177,
      "syra": 1178,
      "till": 1179,
      "rel": 1180,
      "excuse": 1181,
      "sim": 1182,
      "adv": 1183,
      "remember": 1184,
      "##ature": 1185,
      "dead": 1186,
      "menenius": 1187,
      "##raid": 1188,
      "third": 1189,
      "touch": 1190,
      "eas": 1191,
      "differ": 1192,
      "##rian": 1193,
      "mom": 1194,
      "tre": 1195,
      "cassius": 1196,
      "looking": 1197,
      "fort": 1198,
      "working": 1199,
      "syracuse": 1200,
      "##alth": 1201,
      "##cial": 1202,
      "messenger": 1203,
      "rep": 1204,
      "around": 1205,
      "against": 1206,
      "left": 1207,
      "beat": 1208,
      "noble": 1209,
      "##bot": 1210,
      "sun": 1211,
      "afraid": 1212,
      "##broke": 1213,
      "cit": 1214,
      "vi": 1215,
      "sub": 1216,
      "break": 1217,
      "hum": 1218,
      "##ret": 1219,
      "friar": 1220,
      "worth": 1221,
      "##artment": 1222,
      "##ets": 1223,
      "fall": 1224,
      "daughter": 1225,
      "##via": 1226,
      "mother": 1227,
      "ty": 1228,
      "ford": 1229,
      "yourself": 1230,
      "##spur": 1231,
      "##less": 1232,
      "music": 1233,
      "service": 1234,
      "therefore": 1235,
      "const": 1236,
      "answ": 1237,
      "ass": 1238,
      "dri": 1239,
      "plan": 1240,
      "doll": 1241,
      "number": 1242,
      "##irt": 1243,
      "prom": 1244,
      "enjoy": 1245,
      "adrian": 1246,
      "talbot": 1247,
      "hotspur": 1248,
      "##ready": 1249,
      "rece": 1250,
      "light": 1251,
      "country": 1252,
      "present": 1253,
      "##mer": 1254,
      "okay": 1255,
      "near": 1256,
      "miss": 1257,
      "##anc": 1258,
      "already": 1259,
      "claudius": 1260,
      "together": 1261,
      "four": 1262,
      "##ench": 1263,
      "inst": 1264,
      "##stand": 1265,
      "letter": 1266,
      "fell": 1267,
      "nay": 1268,
      "whose": 1269,
      "gone": 1270,
      "##ister": 1271,
      "beh": 1272,
      "five": 1273,
      "pretty": 1274,
      "dra": 1275,
      "makes": 1276,
      "sing": 1277,
      "stop": 1278,
      "account": 1279,
      "wind": 1280,
      "lie": 1281,
      "##ield": 1282,
      "win": 1283,
      "wish": 1284,
      "##omio": 1285,
      "dromio": 1286,
      "grace": 1287,
      "pea": 1288,
      "##king": 1289,
      "##ize": 1290,
      "iv": 1291,
      "sleep": 1292,
      "hus": 1293,
      "ten": 1294,
      "bit": 1295,
      "##liver": 1296,
      "city": 1297,
      "face": 1298,
      "everything": 1299,
      "import": 1300,
      "bol": 1301,
      "pat": 1302,
      "actually": 1303,
      "##ator": 1304,
      "##arb": 1305,
      "without": 1306,
      "##ew": 1307,
      "told": 1308,
      "answer": 1309,
      "##ations": 1310,
      "ac": 1311,
      "ready": 1312,
      "aut": 1313,
      "##inner": 1314,
      "inv": 1315,
      "aff": 1316,
      "within": 1317,
      "soul": 1318,
      "list": 1319,
      "offer": 1320,
      "peace": 1321,
      "##etim": 1322,
      "##sses": 1323,
      "##band": 1324,
      "rather": 1325,
      "##up": 1326,
      "##une": 1327,
      "fav": 1328,
      "cal": 1329,
      "coming": 1330,
      "haven": 1331,
      "disc": 1332,
      "doesn": 1333,
      "lucius": 1334,
      "katharine": 1335,
      "ins": 1336,
      "##ient": 1337,
      "##entine": 1338,
      "sometim": 1339,
      "vii": 1340,
      "##utes": 1341,
      "claudio": 1342,
      "ev": 1343,
      "##dem": 1344,
      "guess": 1345,
      "open": 1346,
      "##ude": 1347,
      "husband": 1348,
      "ton": 1349,
      "##als": 1350,
      "octavius": 1351,
      "##eus": 1352,
      "##cept": 1353,
      "##rie": 1354,
      "##abell": 1355,
      "afterno": 1356,
      "uly": 1357,
      "doctor": 1358,
      "seen": 1359,
      "honest": 1360,
      "ulysses": 1361,
      "bass": 1362,
      "fare": 1363,
      "##abella": 1364,
      "dog": 1365,
      "quest": 1366,
      "prov": 1367,
      "attend": 1368,
      "leonatus": 1369,
      "afternoon": 1370,
      "au": 1371,
      "gir": 1372,
      "##ob": 1373,
      "##br": 1374,
      "france": 1375,
      "dinner": 1376,
      "angelo": 1377,
      "##ider": 1378,
      "add": 1379,
      "came": 1380,
      "price": 1381,
      "bened": 1382,
      "##ener": 1383,
      "half": 1384,
      "proteus": 1385,
      "citiz": 1386,
      "col": 1387,
      "##arus": 1388,
      "wol": 1389,
      "##ingbroke": 1390,
      "bolingbroke": 1391,
      "understand": 1392,
      "##ular": 1393,
      "viii": 1394,
      "vol": 1395,
      "##igh": 1396,
      "##hum": 1397,
      "##ject": 1398,
      "dem": 1399,
      "prod": 1400,
      "poss": 1401,
      "##ps": 1402,
      "int": 1403,
      "##oud": 1404,
      "ba": 1405,
      "ext": 1406,
      "glad": 1407,
      "##ona": 1408,
      "##ised": 1409,
      "seem": 1410,
      "news": 1411,
      "return": 1412,
      "benedick": 1413,
      "##ning": 1414,
      "##eed": 1415,
      "woman": 1416,
      "gon": 1417,
      "chines": 1418,
      "saw": 1419,
      "##volio": 1420,
      "chinese": 1421,
      "##fect": 1422,
      "met": 1423,
      "##ites": 1424,
      "posthum": 1425,
      "posthumus": 1426,
      "found": 1427,
      "ferd": 1428,
      "##inand": 1429,
      "law": 1430,
      "small": 1431,
      "ferdinand": 1432,
      "valentine": 1433,
      "##sey": 1434,
      "reason": 1435,
      "die": 1436,
      "##oke": 1437,
      "##ows": 1438,
      "##well": 1439,
      "##ender": 1440,
      "lost": 1441,
      "quickly": 1442,
      "fun": 1443,
      "himself": 1444,
      "having": 1445,
      "dev": 1446,
      "es": 1447,
      "##oll": 1448,
      "often": 1449,
      "##enty": 1450,
      "eye": 1451,
      "tong": 1452,
      "teach": 1453,
      "##ues": 1454,
      "minutes": 1455,
      "##fort": 1456,
      "dollars": 1457,
      "indeed": 1458,
      "stre": 1459,
      "##ilt": 1460,
      "dre": 1461,
      "nur": 1462,
      "##led": 1463,
      "red": 1464,
      "none": 1465,
      "##ices": 1466,
      "sit": 1467,
      "##az": 1468,
      "##most": 1469,
      "usually": 1470,
      "certainly": 1471,
      "train": 1472,
      "wolsey": 1473,
      "wear": 1474,
      "mal": 1475,
      "pom": 1476,
      "viol": 1477,
      "herm": 1478,
      "walk": 1479,
      "cold": 1480,
      "bott": 1481,
      "faith": 1482,
      "getting": 1483,
      "tonight": 1484,
      "##imo": 1485,
      "words": 1486,
      "seems": 1487,
      "charge": 1488,
      "unt": 1489,
      "coll": 1490,
      "duch": 1491,
      "tick": 1492,
      "kill": 1493,
      "ah": 1494,
      "##ren": 1495,
      "isabella": 1496,
      "used": 1497,
      "desdem": 1498,
      "duchess": 1499,
      "desdemona": 1500,
      "wit": 1501,
      "coun": 1502,
      "##oice": 1503,
      "iach": 1504,
      "##sand": 1505,
      "##rect": 1506,
      "thousand": 1507,
      "different": 1508,
      "iachimo": 1509,
      "hey": 1510,
      "dom": 1511,
      "##uck": 1512,
      "step": 1513,
      "suit": 1514,
      "capul": 1515,
      "##ced": 1516,
      "##ities": 1517,
      "form": 1518,
      "betw": 1519,
      "hol": 1520,
      "##ical": 1521,
      "##ander": 1522,
      "maj": 1523,
      "comput": 1524,
      "bid": 1525,
      "kent": 1526,
      "##ino": 1527,
      "water": 1528,
      "##esus": 1529,
      "paul": 1530,
      "capulet": 1531,
      "vill": 1532,
      "##ior": 1533,
      "##ivers": 1534,
      "##esh": 1535,
      "##bel": 1536,
      "##ures": 1537,
      "inform": 1538,
      "##rant": 1539,
      "eph": 1540,
      "##right": 1541,
      "laun": 1542,
      "edgar": 1543,
      "nurse": 1544,
      "ephesus": 1545,
      "##bt": 1546,
      "##bs": 1547,
      "hours": 1548,
      "##wh": 1549,
      "stra": 1550,
      "##air": 1551,
      "##ison": 1552,
      "def": 1553,
      "##ains": 1554,
      "almost": 1555,
      "pandarus": 1556,
      "court": 1557,
      "less": 1558,
      "emp": 1559,
      "visit": 1560,
      "cut": 1561,
      "##oly": 1562,
      "##erv": 1563,
      "whom": 1564,
      "##iday": 1565,
      "times": 1566,
      "cre": 1567,
      "gener": 1568,
      "party": 1569,
      "##cut": 1570,
      "##iana": 1571,
      "bur": 1572,
      "fill": 1573,
      "ped": 1574,
      "##alt": 1575,
      "speed": 1576,
      "hang": 1577,
      "##ract": 1578,
      "worry": 1579,
      "bank": 1580,
      "##ired": 1581,
      "cassio": 1582,
      "breath": 1583,
      "launce": 1584,
      "went": 1585,
      "##old": 1586,
      "shy": 1587,
      "phil": 1588,
      "easy": 1589,
      "##men": 1590,
      "##cle": 1591,
      "sent": 1592,
      "sum": 1593,
      "marry": 1594,
      "says": 1595,
      "hands": 1596,
      "##bo": 1597,
      "##idius": 1598,
      "exper": 1599,
      "##osed": 1600,
      "meeting": 1601,
      "ach": 1602,
      "##oose": 1603,
      "cham": 1604,
      "##umn": 1605,
      "later": 1606,
      "##ush": 1607,
      "means": 1608,
      "hur": 1609,
      "##onius": 1610,
      "##aron": 1611,
      "special": 1612,
      "##ship": 1613,
      "##iful": 1614,
      "har": 1615,
      "host": 1616,
      "##ead": 1617,
      "##ats": 1618,
      "shop": 1619,
      "prof": 1620,
      "earth": 1621,
      "important": 1622,
      "pompe": 1623,
      "##loy": 1624,
      "##lock": 1625,
      "julia": 1626,
      "##selves": 1627,
      "bar": 1628,
      "ga": 1629,
      "##ial": 1630,
      "##lic": 1631,
      "corn": 1632,
      "##ping": 1633,
      "pompey": 1634,
      "bill": 1635,
      "short": 1636,
      "paroll": 1637,
      "citizen": 1638,
      "parolles": 1639,
      "aaron": 1640,
      "hu": 1641,
      "##uth": 1642,
      "##arbus": 1643,
      "cra": 1644,
      "sic": 1645,
      "sever": 1646,
      "enob": 1647,
      "laur": 1648,
      "spir": 1649,
      "tongue": 1650,
      "enobarbus": 1651,
      "point": 1652,
      "cred": 1653,
      "prop": 1654,
      "##cal": 1655,
      "aside": 1656,
      "##view": 1657,
      "lords": 1658,
      "sick": 1659,
      "##mund": 1660,
      "hair": 1661,
      "sword": 1662,
      "edmund": 1663,
      "trans": 1664,
      "polonius": 1665,
      "soldier": 1666,
      "##rief": 1667,
      "##ester": 1668,
      "dost": 1669,
      "##ments": 1670,
      "fit": 1671,
      "toby": 1672,
      "##ited": 1673,
      "study": 1674,
      "power": 1675,
      "##ken": 1676,
      "bassanio": 1677,
      "between": 1678,
      "lar": 1679,
      "tem": 1680,
      "family": 1681,
      "leonato": 1682,
      "mur": 1683,
      "##itius": 1684,
      "state": 1685,
      "deliver": 1686,
      "domitius": 1687,
      "shylock": 1688,
      "10": 1689,
      "marcus": 1690,
      "prefer": 1691,
      "##uan": 1692,
      "unto": 1693,
      "##ants": 1694,
      "foot": 1695,
      "phone": 1696,
      "##eric": 1697,
      "hector": 1698,
      "evening": 1699,
      "sometimes": 1700,
      "land": 1701,
      "cloth": 1702,
      "##anger": 1703,
      "moment": 1704,
      "girl": 1705,
      "black": 1706,
      "##ably": 1707,
      "fi": 1708,
      "able": 1709,
      "cause": 1710,
      "laurence": 1711,
      "nature": 1712,
      "##isbury": 1713,
      "french": 1714,
      "salisbury": 1715,
      "until": 1716,
      "pick": 1717,
      "##arius": 1718,
      "truth": 1719,
      "gower": 1720,
      "expect": 1721,
      "##ump": 1722,
      "##ilia": 1723,
      "married": 1724,
      "computer": 1725,
      "av": 1726,
      "bas": 1727,
      "##ado": 1728,
      "qual": 1729,
      "forth": 1730,
      "##ida": 1731,
      "prob": 1732,
      "flu": 1733,
      "belarius": 1734,
      "beautiful": 1735,
      "pie": 1736,
      "report": 1737,
      "gold": 1738,
      "pos": 1739,
      "anne": 1740,
      "##aste": 1741,
      "americ": 1742,
      "capt": 1743,
      "paulina": 1744,
      "##eter": 1745,
      "real": 1746,
      "##ished": 1747,
      "perfect": 1748,
      "coff": 1749,
      "intern": 1750,
      "thine": 1751,
      "side": 1752,
      "med": 1753,
      "inc": 1754,
      "health": 1755,
      "##ther": 1756,
      "ele": 1757,
      "##iting": 1758,
      "##ime": 1759,
      "cress": 1760,
      "fore": 1761,
      "princ": 1762,
      "pleasure": 1763,
      "belch": 1764,
      "birth": 1765,
      "product": 1766,
      "princess": 1767,
      "##ged": 1768,
      "clock": 1769,
      "hence": 1770,
      "senator": 1771,
      "cou": 1772,
      "mis": 1773,
      "##ding": 1774,
      "##ager": 1775,
      "##non": 1776,
      "sea": 1777,
      "hate": 1778,
      "##lain": 1779,
      "##illo": 1780,
      "strong": 1781,
      "pard": 1782,
      "##ax": 1783,
      "cond": 1784,
      "prep": 1785,
      "fortune": 1786,
      "viola": 1787,
      "dist": 1788,
      "grow": 1789,
      "oli": 1790,
      "took": 1791,
      "disp": 1792,
      "camillo": 1793,
      "##ny": 1794,
      "lose": 1795,
      "mort": 1796,
      "##enes": 1797,
      "##rew": 1798,
      "either": 1799,
      "ill": 1800,
      "sister": 1801,
      "move": 1802,
      "##oint": 1803,
      "requ": 1804,
      "ent": 1805,
      "someone": 1806,
      "spend": 1807,
      "stri": 1808,
      "exam": 1809,
      "fast": 1810,
      "bag": 1811,
      "lay": 1812,
      "lys": 1813,
      "##ages": 1814,
      "earl": 1815,
      "credit": 1816,
      "pardon": 1817,
      "olivia": 1818,
      "case": 1819,
      "kid": 1820,
      "##ege": 1821,
      "##ating": 1822,
      "tranio": 1823,
      "sport": 1824,
      "weekend": 1825,
      "orland": 1826,
      "murder": 1827,
      "orlando": 1828,
      "fire": 1829,
      "##cess": 1830,
      "employ": 1831,
      "sn": 1832,
      "##atio": 1833,
      "china": 1834,
      "farewell": 1835,
      "several": 1836,
      "fight": 1837,
      "yours": 1838,
      "exact": 1839,
      "comfort": 1840,
      "luck": 1841,
      "##inus": 1842,
      "white": 1843,
      "past": 1844,
      "##ual": 1845,
      "thinking": 1846,
      "volumn": 1847,
      "ere": 1848,
      "##cius": 1849,
      "##oul": 1850,
      "expens": 1851,
      "horatio": 1852,
      "fellow": 1853,
      "virt": 1854,
      ",'": 1855,
      ".'": 1856,
      "cym": 1857,
      "excell": 1858,
      "draw": 1859,
      "##beline": 1860,
      "cymbeline": 1861,
      "yuan": 1862,
      "write": 1863,
      "paper": 1864,
      "gods": 1865,
      "receive": 1866,
      "##eng": 1867,
      "save": 1868,
      "called": 1869,
      "##cri": 1870,
      "pedro": 1871,
      "dam": 1872,
      "##rice": 1873,
      "abs": 1874,
      "yester": 1875,
      "trou": 1876,
      "market": 1877,
      "##ught": 1878,
      "##unch": 1879,
      "flight": 1880,
      "interview": 1881,
      "lucio": 1882,
      "hotel": 1883,
      "chamber": 1884,
      "fil": 1885,
      "wow": 1886,
      "six": 1887,
      "##fidius": 1888,
      "shame": 1889,
      "chr": 1890,
      "twenty": 1891,
      "##room": 1892,
      "body": 1893,
      "aufidius": 1894,
      "bottom": 1895,
      "sicinius": 1896,
      "aw": 1897,
      "eff": 1898,
      "ja": 1899,
      "tam": 1900,
      "appe": 1901,
      "interesting": 1902,
      "interested": 1903,
      "children": 1904,
      "volumnia": 1905,
      "table": 1906,
      "wall": 1907,
      "##ub": 1908,
      "deal": 1909,
      "cominius": 1910,
      "beatrice": 1911,
      "possible": 1912,
      "probably": 1913,
      "fur": 1914,
      "opp": 1915,
      "##cious": 1916,
      "##ques": 1917,
      "maid": 1918,
      "coffee": 1919,
      "fly": 1920,
      "chance": 1921,
      "marcius": 1922,
      "cressida": 1923,
      "##ora": 1924,
      "##ention": 1925,
      "lead": 1926,
      "whole": 1927,
      "paris": 1928,
      "question": 1929,
      "morrow": 1930,
      "busy": 1931,
      "forget": 1932,
      "street": 1933,
      "##rius": 1934,
      "joan": 1935,
      "malvolio": 1936,
      "##aur": 1937,
      "##esty": 1938,
      "information": 1939,
      "fish": 1940,
      "thers": 1941,
      "yesterday": 1942,
      "thersites": 1943,
      "field": 1944,
      "fault": 1945,
      "travel": 1946,
      "den": 1947,
      "##uff": 1948,
      "##ever": 1949,
      "born": 1950,
      "weather": 1951,
      "##oten": 1952,
      "cas": 1953,
      "cook": 1954,
      "heav": 1955,
      "movie": 1956,
      "north": 1957,
      "false": 1958,
      "england": 1959,
      "christ": 1960,
      "countess": 1961,
      "crown": 1962,
      "living": 1963,
      "##orus": 1964,
      "##etrius": 1965,
      "demetrius": 1966,
      "##ames": 1967,
      "captain": 1968,
      "excellent": 1969,
      "grat": 1970,
      "##pr": 1971,
      "##ustom": 1972,
      "along": 1973,
      "univers": 1974,
      "##bert": 1975,
      "favor": 1976,
      "bert": 1977,
      "hund": 1978,
      "pack": 1979,
      "##ling": 1980,
      "emilia": 1981,
      "restaur": 1982,
      "bertram": 1983,
      "hundred": 1984,
      "##stone": 1985,
      "ape": 1986,
      "lea": 1987,
      "cloten": 1988,
      "others": 1989,
      "apartment": 1990,
      "goes": 1991,
      "flavius": 1992,
      "eliz": 1993,
      "autoly": 1994,
      "dream": 1995,
      "autolycus": 1996,
      "gave": 1997,
      "choose": 1998,
      "##ries": 1999,
      "##ellen": 2000,
      "needs": 2001,
      "##abeth": 2002,
      "strange": 2003,
      "fluellen": 2004,
      "elizabeth": 2005,
      "jud": 2006,
      "wed": 2007,
      "ref": 2008,
      "sho": 2009,
      "mary": 2010,
      "purp": 2011,
      "large": 2012,
      "tamora": 2013,
      "ban": 2014,
      "##con": 2015,
      "green": 2016,
      "offic": 2017,
      "##aps": 2018,
      "celia": 2019,
      "polix": 2020,
      "terri": 2021,
      "polixenes": 2022,
      "dress": 2023,
      "sight": 2024,
      "gard": 2025,
      "##illes": 2026,
      "anti": 2027,
      "straight": 2028,
      "agree": 2029,
      "experience": 2030,
      "bought": 2031,
      "lafe": 2032,
      "serious": 2033,
      "lafeu": 2034,
      "dish": 2035,
      "incl": 2036,
      "everyone": 2037,
      "trip": 2038,
      "expensive": 2039,
      "youth": 2040,
      "armado": 2041,
      "kiss": 2042,
      "making": 2043,
      "pain": 2044,
      "##ided": 2045,
      "seat": 2046,
      "least": 2047,
      "##ounds": 2048,
      "touchstone": 2049,
      "line": 2050,
      "##itch": 2051,
      "bye": 2052,
      "ago": 2053,
      "cash": 2054,
      "custom": 2055,
      "hither": 2056,
      "taking": 2057,
      "##dd": 2058,
      "##ared": 2059,
      "trust": 2060,
      "swear": 2061,
      "mercut": 2062,
      "pucell": 2063,
      "mercutio": 2064,
      "pucelle": 2065,
      "##mant": 2066,
      "##wick": 2067,
      "achilles": 2068,
      "cry": 2069,
      "##uce": 2070,
      "##ano": 2071,
      "##ility": 2072,
      "adriana": 2073,
      "general": 2074,
      "dur": 2075,
      "##ove": 2076,
      "soft": 2077,
      "department": 2078,
      "cous": 2079,
      "##vir": 2080,
      "##folk": 2081,
      "chorus": 2082,
      "##els": 2083,
      "manager": 2084,
      "direct": 2085,
      "warwick": 2086,
      "mir": 2087,
      "##ule": 2088,
      "##bast": 2089,
      "##yal": 2090,
      "##erc": 2091,
      "exactly": 2092,
      "cup": 2093,
      "smo": 2094,
      "devil": 2095,
      "sugg": 2096,
      "doubt": 2097,
      "ticket": 2098,
      "apemant": 2099,
      "suggest": 2100,
      "apemantus": 2101,
      "hort": 2102,
      "mil": 2103,
      "pis": 2104,
      "##nes": 2105,
      "sebast": 2106,
      "clean": 2107,
      "adriano": 2108,
      "clothes": 2109,
      "sebastian": 2110,
      "pal": 2111,
      "pity": 2112,
      "##ald": 2113,
      "town": 2114,
      "exc": 2115,
      "div": 2116,
      "cade": 2117,
      "wilt": 2118,
      "##aken": 2119,
      "parents": 2120,
      "norfolk": 2121,
      "minute": 2122,
      "publ": 2123,
      "consider": 2124,
      "summer": 2125,
      "rom": 2126,
      "ver": 2127,
      "##aise": 2128,
      "##kes": 2129,
      "alone": 2130,
      "common": 2131,
      "hortens": 2132,
      "jack": 2133,
      "##ident": 2134,
      "flor": 2135,
      "given": 2136,
      "constance": 2137,
      "further": 2138,
      "##tle": 2139,
      "##iano": 2140,
      "catch": 2141,
      "##iff": 2142,
      "##over": 2143,
      "sell": 2144,
      "brought": 2145,
      "caius": 2146,
      "top": 2147,
      "hugh": 2148,
      "ven": 2149,
      "conc": 2150,
      "drop": 2151,
      "jaques": 2152,
      "dut": 2153,
      "pop": 2154,
      "seven": 2155,
      "besides": 2156,
      "boss": 2157,
      "ob": 2158,
      "door": 2159,
      "##ently": 2160,
      "##ades": 2161,
      "arms": 2162,
      "early": 2163,
      "horse": 2164,
      "##ont": 2165,
      "become": 2166,
      "appoint": 2167,
      "restaurant": 2168,
      "##omm": 2169,
      "##ours": 2170,
      "charles": 2171,
      "happened": 2172,
      "lad": 2173,
      "spirit": 2174,
      "mem": 2175,
      "##ction": 2176,
      "grand": 2177,
      "appre": 2178,
      "pisanio": 2179,
      "enem": 2180,
      "##istol": 2181,
      "##ured": 2182,
      "##ully": 2183,
      "tears": 2184,
      "leg": 2185,
      "women": 2186,
      "gar": 2187,
      "uncle": 2188,
      "##ief": 2189,
      "cousin": 2190,
      "30": 2191,
      "fash": 2192,
      "##lex": 2193,
      "forward": 2194,
      "close": 2195,
      "accept": 2196,
      "danger": 2197,
      "rain": 2198,
      "shalt": 2199,
      "smith": 2200,
      "katharina": 2201,
      "##ike": 2202,
      "##ends": 2203,
      "university": 2204,
      "mount": 2205,
      "pistol": 2206,
      "##more": 2207,
      "boyet": 2208,
      "##body": 2209,
      "position": 2210,
      "stor": 2211,
      "pract": 2212,
      "trouble": 2213,
      "heavy": 2214,
      "ann": 2215,
      "anyway": 2216,
      "prove": 2217,
      "bless": 2218,
      "command": 2219,
      "months": 2220,
      "vac": 2221,
      "join": 2222,
      "steph": 2223,
      "age": 2224,
      "moth": 2225,
      "##outh": 2226,
      "seek": 2227,
      "aren": 2228,
      "villain": 2229,
      "hortensio": 2230,
      "bor": 2231,
      "det": 2232,
      "##ring": 2233,
      "gift": 2234,
      "saturn": 2235,
      "##ision": 2236,
      "prog": 2237,
      "laert": 2238,
      "park": 2239,
      "team": 2240,
      "laertes": 2241,
      "tv": 2242,
      "exerc": 2243,
      "knew": 2244,
      "calling": 2245,
      "lucentio": 2246,
      "reserv": 2247,
      "weeks": 2248,
      "talking": 2249,
      "wonderful": 2250,
      "itself": 2251,
      "hero": 2252,
      "bro": 2253,
      "theseus": 2254,
      "ring": 2255,
      "knows": 2256,
      "clar": 2257,
      "date": 2258,
      "##gry": 2259,
      "weep": 2260,
      "chang": 2261,
      "##ume": 2262,
      "fashion": 2263,
      "cool": 2264,
      "test": 2265,
      "##erve": 2266,
      "##ics": 2267,
      "sheph": 2268,
      "evans": 2269,
      "shepherd": 2270,
      "sad": 2271,
      "ur": 2272,
      "##ters": 2273,
      "priv": 2274,
      "pen": 2275,
      "pict": 2276,
      "##haps": 2277,
      "##anch": 2278,
      "proud": 2279,
      "fresh": 2280,
      "perhaps": 2281,
      "grief": 2282,
      "##terbury": 2283,
      "##ceed": 2284,
      "canterbury": 2285,
      "drive": 2286,
      "est": 2287,
      "lang": 2288,
      "##sino": 2289,
      "orsino": 2290,
      "costard": 2291,
      "wine": 2292,
      "reven": 2293,
      "known": 2294,
      "adm": 2295,
      "build": 2296,
      "ober": 2297,
      "##mnon": 2298,
      "##iam": 2299,
      "##arch": 2300,
      "##vern": 2301,
      "##amemnon": 2302,
      "agamemnon": 2303,
      "depos": 2304,
      "majesty": 2305,
      "##where": 2306,
      "birthday": 2307,
      "oberon": 2308,
      "##mm": 2309,
      "##ione": 2310,
      "arr": 2311,
      "wanted": 2312,
      "gratiano": 2313,
      "##com": 2314,
      "##fully": 2315,
      "maria": 2316,
      "##ational": 2317,
      "mont": 2318,
      "sense": 2319,
      "dance": 2320,
      "##get": 2321,
      "listen": 2322,
      "hermione": 2323,
      "mot": 2324,
      "main": 2325,
      "size": 2326,
      "##ming": 2327,
      "##od": 2328,
      "##icy": 2329,
      "sol": 2330,
      "##ption": 2331,
      "serve": 2332,
      "speaking": 2333,
      "warrant": 2334,
      "langu": 2335,
      "eight": 2336,
      "low": 2337,
      "mid": 2338,
      "mouth": 2339,
      "taken": 2340,
      "##line": 2341,
      "inf": 2342,
      "super": 2343,
      "avail": 2344,
      "20": 2345,
      "ben": 2346,
      "nat": 2347,
      "takes": 2348,
      "thom": 2349,
      "friday": 2350,
      "worse": 2351,
      "purpose": 2352,
      "15": 2353,
      "foul": 2354,
      "##dom": 2355,
      "##eril": 2356,
      "##ones": 2357,
      "deed": 2358,
      "##olog": 2359,
      "loves": 2360,
      "cover": 2361,
      "puck": 2362,
      "diffic": 2363,
      "saturninus": 2364,
      "fre": 2365,
      "rent": 2366,
      "##cum": 2367,
      "##lot": 2368,
      "##zy": 2369,
      "##jing": 2370,
      "##rey": 2371,
      "books": 2372,
      "goneril": 2373,
      "burn": 2374,
      "hurt": 2375,
      "gaunt": 2376,
      "lysander": 2377,
      "clarence": 2378,
      "sand": 2379,
      "##reat": 2380,
      "clear": 2381,
      "peter": 2382,
      "begin": 2383,
      "simple": 2384,
      "##ta": 2385,
      "##owers": 2386,
      "lies": 2387,
      "exeter": 2388,
      "recomm": 2389,
      "000": 2390,
      "deep": 2391,
      "joy": 2392,
      "secret": 2393,
      "appro": 2394,
      "bapt": 2395,
      "##ength": 2396,
      "thomas": 2397,
      "match": 2398,
      "var": 2399,
      "sty": 2400,
      "neigh": 2401,
      "alright": 2402,
      "##ista": 2403,
      "sorrow": 2404,
      "thoughts": 2405,
      "promise": 2406,
      "recommend": 2407,
      "gall": 2408,
      "mach": 2409,
      "its": 2410,
      "##oof": 2411,
      "note": 2412,
      "marina": 2413,
      "cast": 2414,
      "gh": 2415,
      "##we": 2416,
      "lives": 2417,
      "##ilius": 2418,
      "royal": 2419,
      "couldn": 2420,
      "contract": 2421,
      "##eech": 2422,
      "tax": 2423,
      "silvia": 2424,
      "profess": 2425,
      "game": 2426,
      "sort": 2427,
      "tour": 2428,
      "##ica": 2429,
      "star": 2430,
      "##cks": 2431,
      "##ately": 2432,
      "##ific": 2433,
      "beseech": 2434,
      "during": 2435,
      "##tern": 2436,
      "quar": 2437,
      "partic": 2438,
      "regan": 2439,
      "baptista": 2440,
      "nest": 2441,
      "##ixt": 2442,
      "##na": 2443,
      "##ball": 2444,
      "ship": 2445,
      "edward": 2446,
      "philip": 2447,
      "lor": 2448,
      "##inite": 2449,
      "paid": 2450,
      "mail": 2451,
      "ari": 2452,
      "fig": 2453,
      "meth": 2454,
      "##iers": 2455,
      "##ital": 2456,
      "del": 2457,
      "##olus": 2458,
      "knight": 2459,
      "##ague": 2460,
      "lunch": 2461,
      "##uly": 2462,
      "##ipp": 2463,
      "##unk": 2464,
      "##pholus": 2465,
      "##cially": 2466,
      "##izel": 2467,
      "sales": 2468,
      "feeling": 2469,
      "started": 2470,
      "winter": 2471,
      "hermia": 2472,
      "antipholus": 2473,
      "florizel": 2474,
      "available": 2475,
      "ghost": 2476,
      "bab": 2477,
      "dark": 2478,
      "##rel": 2479,
      "whether": 2480,
      "ones": 2481,
      "perform": 2482,
      "fift": 2483,
      "internet": 2484,
      "appreci": 2485,
      "reservation": 2486,
      "##ug": 2487,
      "##eous": 2488,
      "##enz": 2489,
      "weight": 2490,
      "stuff": 2491,
      "wouldn": 2492,
      "lab": 2493,
      "subject": 2494,
      "shopping": 2495,
      "jew": 2496,
      "##side": 2497,
      "govern": 2498,
      "chea": 2499,
      "worcester": 2500,
      "alb": 2501,
      "ariel": 2502,
      "##isf": 2503,
      "bei": 2504,
      "##olute": 2505,
      "franc": 2506,
      "arri": 2507,
      "longer": 2508,
      "ground": 2509,
      "player": 2510,
      "forgot": 2511,
      "provost": 2512,
      "dare": 2513,
      "##mond": 2514,
      "##ner": 2515,
      "##eal": 2516,
      "tot": 2517,
      "##ceive": 2518,
      "alas": 2519,
      "loved": 2520,
      "mod": 2521,
      "desire": 2522,
      "effect": 2523,
      "sus": 2524,
      "##uph": 2525,
      "##ford": 2526,
      "##ots": 2527,
      "prison": 2528,
      "beauty": 2529,
      "foreign": 2530,
      "neighb": 2531,
      "lorenz": 2532,
      "lorenzo": 2533,
      "throw": 2534,
      "##urance": 2535,
      "neither": 2536,
      "allow": 2537,
      "##retch": 2538,
      "behind": 2539,
      "piece": 2540,
      "beijing": 2541,
      "song": 2542,
      "##itor": 2543,
      "gentlemen": 2544,
      "grum": 2545,
      "color": 2546,
      "##ithee": 2547,
      "prithee": 2548,
      "succ": 2549,
      "trying": 2550,
      "single": 2551,
      "difficult": 2552,
      "base": 2553,
      "##oc": 2554,
      "##oura": 2555,
      "##asure": 2556,
      "store": 2557,
      "##rate": 2558,
      "rob": 2559,
      "##umberland": 2560,
      "tired": 2561,
      "lod": 2562,
      "##berry": 2563,
      "patience": 2564,
      "affect": 2565,
      "escal": 2566,
      "quality": 2567,
      "cord": 2568,
      "cop": 2569,
      "##adu": 2570,
      "emb": 2571,
      "thirty": 2572,
      "worthy": 2573,
      "couple": 2574,
      "northumberland": 2575,
      "favorite": 2576,
      "##ees": 2577,
      "mel": 2578,
      "choice": 2579,
      "box": 2580,
      "deposit": 2581,
      "francis": 2582,
      "oph": 2583,
      "wo": 2584,
      "##unes": 2585,
      "##ishop": 2586,
      "satisf": 2587,
      "launcelot": 2588,
      "escalus": 2589,
      "ophelia": 2590,
      "fix": 2591,
      "lim": 2592,
      "##sue": 2593,
      "##ape": 2594,
      "press": 2595,
      "richmond": 2596,
      "grumio": 2597,
      "##mio": 2598,
      "##imer": 2599,
      "gremio": 2600,
      "problems": 2601,
      "bloody": 2602,
      "products": 2603,
      "program": 2604,
      "exercise": 2605,
      "wise": 2606,
      "##med": 2607,
      "##iest": 2608,
      "##ley": 2609,
      "carry": 2610,
      "slender": 2611,
      "double": 2612,
      "wasn": 2613,
      "recei": 2614,
      "espe": 2615,
      "bound": 2616,
      "mag": 2617,
      "taste": 2618,
      "stock": 2619,
      "rosaline": 2620,
      "mortimer": 2621,
      "lond": 2622,
      "quiet": 2623,
      "plant": 2624,
      "hastings": 2625,
      "supposed": 2626,
      "counter": 2627,
      "london": 2628,
      "12": 2629,
      "##work": 2630,
      "##ined": 2631,
      "##ancy": 2632,
      "##umb": 2633,
      "accord": 2634,
      "titan": 2635,
      "satur": 2636,
      "##uc": 2637,
      "##ru": 2638,
      "##ses": 2639,
      "##ural": 2640,
      "guard": 2641,
      "contr": 2642,
      "##ails": 2643,
      "duty": 2644,
      "stephano": 2645,
      "especially": 2646,
      "voice": 2647,
      "##vey": 2648,
      "flo": 2649,
      "##iban": 2650,
      "absolute": 2651,
      "terrible": 2652,
      "public": 2653,
      "diana": 2654,
      "oath": 2655,
      "##ofer": 2656,
      "contin": 2657,
      "tried": 2658,
      "personal": 2659,
      "caliban": 2660,
      "holofer": 2661,
      "chamberlain": 2662,
      "appointment": 2663,
      "success": 2664,
      "saturday": 2665,
      "holofernes": 2666,
      "##bi": 2667,
      "apply": 2668,
      "holiday": 2669,
      "##gr": 2670,
      "lew": 2671,
      "opin": 2672,
      "teacher": 2673,
      "officer": 2674,
      "ears": 2675,
      "equ": 2676,
      "##ric": 2677,
      "##dle": 2678,
      "weak": 2679,
      "##vert": 2680,
      "dad": 2681,
      "honey": 2682,
      "##bly": 2683,
      "##used": 2684,
      "##omed": 2685,
      "appear": 2686,
      "vie": 2687,
      "##ned": 2688,
      "##ges": 2689,
      "##ita": 2690,
      "##riage": 2691,
      "amb": 2692,
      "amaz": 2693,
      "holy": 2694,
      "dauph": 2695,
      "waiting": 2696,
      "virtue": 2697,
      "nestor": 2698,
      "dauphin": 2699,
      "fat": 2700,
      "rate": 2701,
      "##ech": 2702,
      "##ked": 2703,
      "thur": 2704,
      "##ote": 2705,
      "##ires": 2706,
      "reading": 2707,
      "brave": 2708,
      "ball": 2709,
      "bene": 2710,
      "andrew": 2711,
      "shallow": 2712,
      "thyself": 2713,
      "suppose": 2714,
      "college": 2715,
      "appreciate": 2716,
      "##rude": 2717,
      "##gy": 2718,
      "##ane": 2719,
      "prin": 2720,
      "complet": 2721,
      "behold": 2722,
      "questions": 2723,
      "hubert": 2724,
      "aene": 2725,
      "##mon": 2726,
      "toward": 2727,
      "alci": 2728,
      "gives": 2729,
      "##biades": 2730,
      "aeneas": 2731,
      "alcibiades": 2732,
      "##cent": 2733,
      "meat": 2734,
      "wash": 2735,
      "laugh": 2736,
      "##airs": 2737,
      "burg": 2738,
      "view": 2739,
      "gain": 2740,
      "gert": 2741,
      "##alo": 2742,
      "guy": 2743,
      "resp": 2744,
      "respect": 2745,
      "gracious": 2746,
      "suffer": 2747,
      "gertrude": 2748,
      "round": 2749,
      "chick": 2750,
      "deg": 2751,
      "guider": 2752,
      "charm": 2753,
      "content": 2754,
      "grave": 2755,
      "asked": 2756,
      "dogberry": 2757,
      "extra": 2758,
      "gonz": 2759,
      "major": 2760,
      "hop": 2761,
      "west": 2762,
      "##aces": 2763,
      "##ended": 2764,
      "serving": 2765,
      "diomed": 2766,
      "confess": 2767,
      "simon": 2768,
      "##dden": 2769,
      "guiderius": 2770,
      "##vere": 2771,
      "##onus": 2772,
      "above": 2773,
      "##hip": 2774,
      "##ense": 2775,
      "front": 2776,
      "conven": 2777,
      "fact": 2778,
      "speech": 2779,
      "road": 2780,
      "insurance": 2781,
      "dar": 2782,
      "ir": 2783,
      "occ": 2784,
      "vir": 2785,
      "##hood": 2786,
      "necess": 2787,
      "outside": 2788,
      "gonzalo": 2789,
      "bian": 2790,
      "mor": 2791,
      "rib": 2792,
      "##uit": 2793,
      "truly": 2794,
      "merry": 2795,
      "popular": 2796,
      "albany": 2797,
      "lam": 2798,
      "woo": 2799,
      "##que": 2800,
      "##ills": 2801,
      "except": 2802,
      "##astic": 2803,
      "lovely": 2804,
      "prev": 2805,
      "advice": 2806,
      "ladies": 2807,
      "benvolio": 2808,
      "titania": 2809,
      "hun": 2810,
      "##ais": 2811,
      "##erman": 2812,
      "william": 2813,
      "eng": 2814,
      "worked": 2815,
      "traff": 2816,
      "finish": 2817,
      "includ": 2818,
      "vacation": 2819,
      "lewis": 2820,
      "wood": 2821,
      "##vin": 2822,
      "##ept": 2823,
      "design": 2824,
      "cross": 2825,
      "salary": 2826,
      "mercy": 2827,
      "camp": 2828,
      "decided": 2829,
      "00": 2830,
      "100": 2831,
      "ce": 2832,
      "yield": 2833,
      "glass": 2834,
      "baw": 2835,
      "definite": 2836,
      "particular": 2837,
      "bianca": 2838,
      "traffic": 2839,
      "cow": 2840,
      "##enet": 2841,
      "chur": 2842,
      "##riend": 2843,
      "among": 2844,
      "themselves": 2845,
      "sched": 2846,
      "american": 2847,
      "##thur": 2848,
      "sudden": 2849,
      "unless": 2850,
      "manage": 2851,
      "arthur": 2852,
      "wants": 2853,
      "compan": 2854,
      "safe": 2855,
      "favour": 2856,
      "received": 2857,
      "simonides": 2858,
      "tender": 2859,
      "exch": 2860,
      "##ulph": 2861,
      "bob": 2862,
      "##undy": 2863,
      "pandulph": 2864,
      "window": 2865,
      "burgundy": 2866,
      "sin": 2867,
      "##iant": 2868,
      "sem": 2869,
      "marriage": 2870,
      "poet": 2871,
      "hearts": 2872,
      "happen": 2873,
      "relax": 2874,
      "opinion": 2875,
      "mow": 2876,
      "oliver": 2877,
      "rid": 2878,
      "swim": 2879,
      "moon": 2880,
      "playing": 2881,
      "highness": 2882,
      "finished": 2883,
      "instr": 2884,
      "floor": 2885,
      "##ico": 2886,
      "##erset": 2887,
      "somerset": 2888,
      "##itting": 2889,
      "bow": 2890,
      "cent": 2891,
      "##mas": 2892,
      "##gn": 2893,
      "##ale": 2894,
      "##anda": 2895,
      "plain": 2896,
      "##ement": 2897,
      "casca": 2898,
      "pot": 2899,
      "sake": 2900,
      "bell": 2901,
      "bold": 2902,
      "pair": 2903,
      "record": 2904,
      "##time": 2905,
      "##oop": 2906,
      "knave": 2907,
      "goods": 2908,
      "trump": 2909,
      "gets": 2910,
      "##agus": 2911,
      "perd": 2912,
      "key": 2913,
      "furn": 2914,
      "kept": 2915,
      "##ety": 2916,
      "shar": 2917,
      "stir": 2918,
      "##ards": 2919,
      "##igo": 2920,
      "curr": 2921,
      "strike": 2922,
      "private": 2923,
      "language": 2924,
      "style": 2925,
      "50": 2926,
      "ath": 2927,
      "hit": 2928,
      "##tain": 2929,
      "##za": 2930,
      "##iter": 2931,
      "whil": 2932,
      "##ument": 2933,
      "arvir": 2934,
      "sale": 2935,
      "guest": 2936,
      "pale": 2937,
      "stands": 2938,
      "brab": 2939,
      "arviragus": 2940,
      "nine": 2941,
      "wid": 2942,
      "##ying": 2943,
      "##ency": 2944,
      "praise": 2945,
      "sooth": 2946,
      "##inks": 2947,
      "didst": 2948,
      "tele": 2949,
      "##cuss": 2950,
      "counsel": 2951,
      "medic": 2952,
      "according": 2953,
      "benef": 2954,
      "chicken": 2955,
      "pan": 2956,
      "ri": 2957,
      "seeing": 2958,
      "project": 2959,
      "##derigo": 2960,
      "roderigo": 2961,
      "twice": 2962,
      "percy": 2963,
      "impress": 2964,
      "address": 2965,
      "kids": 2966,
      "absolutely": 2967,
      "!'": 2968,
      "fet": 2969,
      "squ": 2970,
      "##ani": 2971,
      "fab": 2972,
      "saying": 2973,
      "cran": 2974,
      "strength": 2975,
      "learned": 2976,
      "surpr": 2977,
      "condition": 2978,
      "spring": 2979,
      "scar": 2980,
      "shows": 2981,
      "famous": 2982,
      "enemy": 2983,
      "receipt": 2984,
      "brabant": 2985,
      "aj": 2986,
      "cer": 2987,
      "##ative": 2988,
      "##enc": 2989,
      "##imon": 2990,
      "sovere": 2991,
      "brown": 2992,
      "dull": 2993,
      "mov": 2994,
      "haste": 2995,
      "constable": 2996,
      "letters": 2997,
      "##bray": 2998,
      "ahead": 2999,
      "murderer": 3000,
      "palace": 3001,
      "mowbray": 3002,
      "ajax": 3003,
      "sovereign": 3004,
      "##itions": 3005,
      "hist": 3006,
      "moved": 3007,
      "soldiers": 3008,
      "sports": 3009,
      "machine": 3010,
      "wild": 3011,
      "##uous": 3012,
      "staff": 3013,
      "canst": 3014,
      "broke": 3015,
      "justice": 3016,
      "discuss": 3017,
      "aege": 3018,
      "sons": 3019,
      "tow": 3020,
      "##irm": 3021,
      "self": 3022,
      "willing": 3023,
      "march": 3024,
      "amount": 3025,
      "##ission": 3026,
      "senior": 3027,
      "miranda": 3028,
      "definitely": 3029,
      "aegeon": 3030,
      "alex": 3031,
      "cat": 3032,
      "ut": 3033,
      "##aw": 3034,
      "##ances": 3035,
      "##ese": 3036,
      "ourselves": 3037,
      "parts": 3038,
      "gradu": 3039,
      "passport": 3040,
      "opport": 3041,
      "picture": 3042,
      "convenient": 3043,
      "brabantio": 3044,
      "wars": 3045,
      "issue": 3046,
      "##ils": 3047,
      "brand": 3048,
      "speaks": 3049,
      "desp": 3050,
      "cheer": 3051,
      "kinds": 3052,
      "instead": 3053,
      "temper": 3054,
      "prepare": 3055,
      "leaving": 3056,
      "complete": 3057,
      "bawd": 3058,
      "exchange": 3059,
      "##aniel": 3060,
      "##co": 3061,
      "shirt": 3062,
      "places": 3063,
      "agre": 3064,
      "##ledge": 3065,
      "building": 3066,
      "cranmer": 3067,
      "opportun": 3068,
      "bos": 3069,
      "angry": 3070,
      "docum": 3071,
      "##stem": 3072,
      "flatter": 3073,
      "calls": 3074,
      "sometime": 3075,
      "wedding": 3076,
      "shoes": 3077,
      "banish": 3078,
      "dangerous": 3079,
      "church": 3080,
      "movies": 3081,
      "fie": 3082,
      "##iner": 3083,
      "##eness": 3084,
      "item": 3085,
      "##ution": 3086,
      "noise": 3087,
      "blue": 3088,
      "twas": 3089,
      "flowers": 3090,
      "##ables": 3091,
      "system": 3092,
      "heavens": 3093,
      "terms": 3094,
      "type": 3095,
      "cordelia": 3096,
      "200": 3097,
      "bat": 3098,
      "paint": 3099,
      "##ton": 3100,
      "##pl": 3101,
      "station": 3102,
      "helic": 3103,
      "##ians": 3104,
      "express": 3105,
      "america": 3106,
      "##hor": 3107,
      "##dra": 3108,
      "online": 3109,
      "arg": 3110,
      "spoke": 3111,
      "flesh": 3112,
      "board": 3113,
      "countries": 3114,
      "action": 3115,
      "running": 3116,
      "fing": 3117,
      "##por": 3118,
      "##ising": 3119,
      "##cel": 3120,
      "imag": 3121,
      "ways": 3122,
      "careful": 3123,
      "smoking": 3124,
      "charmian": 3125,
      "diomedes": 3126,
      "band": 3127,
      "brief": 3128,
      "ge": 3129,
      "hark": 3130,
      "##chester": 3131,
      "enc": 3132,
      "clim": 3133,
      "spent": 3134,
      "##rove": 3135,
      "cheek": 3136,
      "warm": 3137,
      "##clus": 3138,
      "revenge": 3139,
      "perdita": 3140,
      "widow": 3141,
      "dry": 3142,
      "kitch": 3143,
      "lat": 3144,
      "mond": 3145,
      "##ued": 3146,
      "##ift": 3147,
      "##erved": 3148,
      "##idge": 3149,
      "fruit": 3150,
      "anyone": 3151,
      "tickets": 3152,
      "christmas": 3153,
      "roman": 3154,
      "respons": 3155,
      "cir": 3156,
      "dest": 3157,
      "pin": 3158,
      "##rah": 3159,
      "cliff": 3160,
      "##umer": 3161,
      "smell": 3162,
      "grant": 3163,
      "lots": 3164,
      "correct": 3165,
      "bosom": 3166,
      "helicanus": 3167,
      "ice": 3168,
      "jess": 3169,
      "wis": 3170,
      "##ov": 3171,
      "mons": 3172,
      "recently": 3173,
      "assist": 3174,
      "lucky": 3175,
      "monday": 3176,
      "##ern": 3177,
      "slow": 3178,
      "collect": 3179,
      "fetch": 3180,
      "kitchen": 3181,
      "dion": 3182,
      "horn": 3183,
      "oper": 3184,
      "##ha": 3185,
      "##omach": 3186,
      "fail": 3187,
      "fee": 3188,
      "phot": 3189,
      "difference": 3190,
      "discount": 3191,
      "bath": 3192,
      "games": 3193,
      "py": 3194,
      "ride": 3195,
      "wretch": 3196,
      "##go": 3197,
      "##rem": 3198,
      "und": 3199,
      "sirrah": 3200,
      "pluck": 3201,
      "drum": 3202,
      "valiant": 3203,
      "presently": 3204,
      "bond": 3205,
      "##ium": 3206,
      "shape": 3207,
      "story": 3208,
      "loss": 3209,
      "entertain": 3210,
      "##itted": 3211,
      "watching": 3212,
      "hurry": 3213,
      "deny": 3214,
      "bishop": 3215,
      "##fast": 3216,
      "lion": 3217,
      "##olph": 3218,
      "##ulations": 3219,
      "trad": 3220,
      "feed": 3221,
      "##achio": 3222,
      "disg": 3223,
      "handle": 3224,
      "protect": 3225,
      "##velop": 3226,
      "afford": 3227,
      "transfer": 3228,
      "total": 3229,
      "kate": 3230,
      "lest": 3231,
      "ms": 3232,
      "mill": 3233,
      "##zen": 3234,
      "##ination": 3235,
      "chat": 3236,
      "delic": 3237,
      "##ourish": 3238,
      "veget": 3239,
      "##road": 3240,
      "winchester": 3241,
      "training": 3242,
      "##while": 3243,
      "bion": 3244,
      "bard": 3245,
      "borrow": 3246,
      "##dello": 3247,
      "##antage": 3248,
      "env": 3249,
      "sav": 3250,
      "scorn": 3251,
      "traitor": 3252,
      "##bye": 3253,
      "passion": 3254,
      "invest": 3255,
      "witness": 3256,
      "borachio": 3257,
      "biondello": 3258,
      "mention": 3259,
      "sam": 3260,
      "##ror": 3261,
      "##ped": 3262,
      "##ences": 3263,
      "neck": 3264,
      "herald": 3265,
      "proceed": 3266,
      "boys": 3267,
      "bedroom": 3268,
      "pleased": 3269,
      "example": 3270,
      "methinks": 3271,
      "saint": 3272,
      "um": 3273,
      "##ives": 3274,
      "reign": 3275,
      "notice": 3276,
      "ord": 3277,
      "died": 3278,
      "resol": 3279,
      "breakfast": 3280,
      "harm": 3281,
      "ble": 3282,
      "due": 3283,
      "##grat": 3284,
      "##wall": 3285,
      "##ises": 3286,
      "##ays": 3287,
      "held": 3288,
      "lips": 3289,
      "goodbye": 3290,
      "##ulo": 3291,
      "purch": 3292,
      "##ify": 3293,
      "learning": 3294,
      "signior": 3295,
      "##ourable": 3296,
      "virg": 3297,
      "danc": 3298,
      "fant": 3299,
      "ner": 3300,
      "vent": 3301,
      "##bit": 3302,
      "abroad": 3303,
      "arch": 3304,
      "feast": 3305,
      "cleon": 3306,
      "##ney": 3307,
      "liege": 3308,
      "patient": 3309,
      "attendants": 3310,
      "crazy": 3311,
      "elect": 3312,
      "entreat": 3313,
      "kidding": 3314,
      "venice": 3315,
      "current": 3316,
      "fabian": 3317,
      "bardolph": 3318,
      "egg": 3319,
      "knowledge": 3320,
      "trinc": 3321,
      "space": 3322,
      "writing": 3323,
      "claim": 3324,
      "famil": 3325,
      "term": 3326,
      "hostess": 3327,
      "fut": 3328,
      "##vell": 3329,
      "withal": 3330,
      "neg": 3331,
      "org": 3332,
      "trick": 3333,
      "plenty": 3334,
      "blow": 3335,
      "mock": 3336,
      "salar": 3337,
      "depart": 3338,
      "south": 3339,
      "##inning": 3340,
      "broken": 3341,
      "schedule": 3342,
      "trinculo": 3343,
      "!--": 3344,
      "lend": 3345,
      "nose": 3346,
      "trade": 3347,
      "advert": 3348,
      "sworn": 3349,
      "##ized": 3350,
      "desk": 3351,
      "lucy": 3352,
      "planning": 3353,
      "intro": 3354,
      "cornwall": 3355,
      "baby": 3356,
      "lodov": 3357,
      "jessica": 3358,
      "future": 3359,
      "lodovico": 3360,
      "##ners": 3361,
      "##asion": 3362,
      "##asons": 3363,
      "print": 3364,
      "sole": 3365,
      "season": 3366,
      "chall": 3367,
      "applic": 3368,
      "student": 3369,
      "decision": 3370,
      "demand": 3371,
      "dread": 3372,
      "government": 3373,
      "woe": 3374,
      "sli": 3375,
      "##ral": 3376,
      "##wise": 3377,
      "hall": 3378,
      "##amed": 3379,
      "search": 3380,
      "rose": 3381,
      "poison": 3382,
      "merch": 3383,
      "##uction": 3384,
      "servingman": 3385,
      "clifford": 3386,
      "##ging": 3387,
      "##eel": 3388,
      "beast": 3389,
      "becom": 3390,
      "area": 3391,
      "develop": 3392,
      "##under": 3393,
      "##aked": 3394,
      "lack": 3395,
      "wherefore": 3396,
      "educ": 3397,
      "policy": 3398,
      "giving": 3399,
      "soup": 3400,
      "students": 3401,
      "sunday": 3402,
      "incre": 3403,
      "changed": 3404,
      "figure": 3405,
      "plantag": 3406,
      "crow": 3407,
      "tall": 3408,
      "wherein": 3409,
      "higher": 3410,
      "consci": 3411,
      "spirits": 3412,
      "snow": 3413,
      "cheap": 3414,
      "aud": 3415,
      "rever": 3416,
      "##ration": 3417,
      "local": 3418,
      "shouldn": 3419,
      "sail": 3420,
      "cru": 3421,
      "slave": 3422,
      "##ified": 3423,
      "acqu": 3424,
      "studying": 3425,
      "plantagenet": 3426,
      "25": 3427,
      "vile": 3428,
      "##iar": 3429,
      "##ls": 3430,
      "##ket": 3431,
      "##onso": 3432,
      "bee": 3433,
      "libr": 3434,
      "##rag": 3435,
      "plans": 3436,
      "lavin": 3437,
      "spare": 3438,
      "message": 3439,
      "skin": 3440,
      "##cription": 3441,
      "garden": 3442,
      "mountain": 3443,
      "history": 3444,
      "lavinia": 3445,
      "aust": 3446,
      "bud": 3447,
      "dum": 3448,
      "##he": 3449,
      "##enton": 3450,
      "##ules": 3451,
      "worst": 3452,
      "alonso": 3453,
      "##igonus": 3454,
      "antigonus": 3455,
      "telling": 3456,
      "services": 3457,
      "honourable": 3458,
      "##issa": 3459,
      "contact": 3460,
      "commend": 3461,
      "rosenc": 3462,
      "tech": 3463,
      "depends": 3464,
      "lately": 3465,
      "wondering": 3466,
      "survey": 3467,
      "##rantz": 3468,
      "employees": 3469,
      "exciting": 3470,
      "degree": 3471,
      "sharp": 3472,
      "medicine": 3473,
      "rosencrantz": 3474,
      "dav": 3475,
      "jim": 3476,
      "jest": 3477,
      "obs": 3478,
      "##ai": 3479,
      "stomach": 3480,
      "lived": 3481,
      "##oler": 3482,
      "quit": 3483,
      "brit": 3484,
      "works": 3485,
      "luciana": 3486,
      "keeps": 3487,
      "trib": 3488,
      "finally": 3489,
      "driving": 3490,
      "proper": 3491,
      "international": 3492,
      "cerimon": 3493,
      "pyram": 3494,
      "der": 3495,
      "fenton": 3496,
      "gro": 3497,
      "mut": 3498,
      "meant": 3499,
      "withdra": 3500,
      "##race": 3501,
      "kingdom": 3502,
      "unf": 3503,
      "##like": 3504,
      "provide": 3505,
      "extrem": 3506,
      "girls": 3507,
      "judge": 3508,
      "natural": 3509,
      "quarrel": 3510,
      "library": 3511,
      "final": 3512,
      "grie": 3513,
      "tent": 3514,
      "wound": 3515,
      "##eas": 3516,
      "force": 3517,
      "measure": 3518,
      "##idence": 3519,
      "blind": 3520,
      "diet": 3521,
      "phys": 3522,
      "tai": 3523,
      "eating": 3524,
      "film": 3525,
      "approach": 3526,
      "performance": 3527,
      "labour": 3528,
      "conscience": 3529,
      "aumer": 3530,
      "bal": 3531,
      "bright": 3532,
      "loud": 3533,
      "##pid": 3534,
      "ital": 3535,
      "reach": 3536,
      "stick": 3537,
      "whatever": 3538,
      "envir": 3539,
      "knock": 3540,
      "##achus": 3541,
      "asking": 3542,
      "regular": 3543,
      "promot": 3544,
      "football": 3545,
      "##rupt": 3546,
      "withdraw": 3547,
      "aumerle": 3548,
      "nym": 3549,
      "tar": 3550,
      "##ann": 3551,
      "##leans": 3552,
      "orleans": 3553,
      "mart": 3554,
      "##osp": 3555,
      "alar": 3556,
      "alth": 3557,
      "lordship": 3558,
      "##aged": 3559,
      "flourish": 3560,
      "newsp": 3561,
      "drunk": 3562,
      "payment": 3563,
      "decide": 3564,
      "fortunes": 3565,
      "request": 3566,
      "##ealous": 3567,
      "ign": 3568,
      "owe": 3569,
      "rare": 3570,
      "rush": 3571,
      "heir": 3572,
      "offence": 3573,
      "compet": 3574,
      "##cient": 3575,
      "rooms": 3576,
      "drinks": 3577,
      "steal": 3578,
      "simp": 3579,
      "treat": 3580,
      "leaves": 3581,
      "##medi": 3582,
      "princes": 3583,
      "although": 3584,
      "gate": 3585,
      "hmm": 3586,
      "hosp": 3587,
      "jour": 3588,
      "lust": 3589,
      "pull": 3590,
      "sigh": 3591,
      "tail": 3592,
      "##ma": 3593,
      "##hy": 3594,
      "##ebe": 3595,
      "##occ": 3596,
      "##fic": 3597,
      "##orter": 3598,
      "##isle": 3599,
      "##imachus": 3600,
      "wouldst": 3601,
      "using": 3602,
      "holl": 3603,
      "breast": 3604,
      "heads": 3605,
      "tale": 3606,
      "judg": 3607,
      "companies": 3608,
      "salarino": 3609,
      "introd": 3610,
      "dumain": 3611,
      "environ": 3612,
      "fel": 3613,
      "##say": 3614,
      "ancient": 3615,
      "##ask": 3616,
      "##lect": 3617,
      "likes": 3618,
      "loan": 3619,
      "factor": 3620,
      "possess": 3621,
      "lysimachus": 3622,
      "vernon": 3623,
      "nerissa": 3624,
      "organ": 3625,
      "##eem": 3626,
      "##bow": 3627,
      "##ware": 3628,
      "thro": 3629,
      "clos": 3630,
      "percent": 3631,
      "charac": 3632,
      "bird": 3633,
      "mrs": 3634,
      "##bling": 3635,
      "promised": 3636,
      "corner": 3637,
      "milk": 3638,
      "control": 3639,
      "amazing": 3640,
      "coward": 3641,
      "balth": 3642,
      "cell": 3643,
      "dig": 3644,
      "jealous": 3645,
      "rage": 3646,
      "raise": 3647,
      "wake": 3648,
      "##aim": 3649,
      "anon": 3650,
      "##itude": 3651,
      "proof": 3652,
      "conn": 3653,
      "##empt": 3654,
      "emper": 3655,
      "girlf": 3656,
      "citizens": 3657,
      "taxi": 3658,
      "fifty": 3659,
      "heat": 3660,
      "herself": 3661,
      "process": 3662,
      "twere": 3663,
      "compl": 3664,
      "immedi": 3665,
      "lucilius": 3666,
      "accident": 3667,
      "attention": 3668,
      "camer": 3669,
      "purse": 3670,
      "surrey": 3671,
      "prepared": 3672,
      "magaz": 3673,
      "cates": 3674,
      "jap": 3675,
      "rough": 3676,
      "##mp": 3677,
      "##af": 3678,
      "##of": 3679,
      "##bb": 3680,
      "##iced": 3681,
      "stood": 3682,
      "seal": 3683,
      "worship": 3684,
      "confer": 3685,
      "feet": 3686,
      "laid": 3687,
      "cock": 3688,
      "guys": 3689,
      "phebe": 3690,
      "presence": 3691,
      "turned": 3692,
      "excited": 3693,
      "girlfriend": 3694,
      "japan": 3695,
      "##ining": 3696,
      "beer": 3697,
      "beach": 3698,
      "shake": 3699,
      "lepid": 3700,
      "congrat": 3701,
      "spo": 3702,
      "adam": 3703,
      "drown": 3704,
      "writ": 3705,
      "gross": 3706,
      "##bey": 3707,
      "police": 3708,
      "fools": 3709,
      "classes": 3710,
      "necessary": 3711,
      "morocc": 3712,
      "lepidus": 3713,
      "aem": 3714,
      "hide": 3715,
      "maint": 3716,
      "##night": 3717,
      "##sing": 3718,
      "##ker": 3719,
      "liber": 3720,
      "club": 3721,
      "##feit": 3722,
      "guild": 3723,
      "remain": 3724,
      "mighty": 3725,
      "brain": 3726,
      "comfortable": 3727,
      "hospital": 3728,
      "environment": 3729,
      "morocco": 3730,
      "awhile": 3731,
      "tree": 3732,
      "##res": 3733,
      "##sday": 3734,
      "##pers": 3735,
      "shr": 3736,
      "shut": 3737,
      "stars": 3738,
      "priest": 3739,
      "mariana": 3740,
      "saf": 3741,
      "surely": 3742,
      "boat": 3743,
      "appar": 3744,
      "resume": 3745,
      "mistake": 3746,
      "sla": 3747,
      "bedford": 3748,
      "##bled": 3749,
      "require": 3750,
      "walls": 3751,
      "swimming": 3752,
      "soothsay": 3753,
      "battle": 3754,
      "beef": 3755,
      "emperor": 3756,
      "cake": 3757,
      "mike": 3758,
      "net": 3759,
      "pounds": 3760,
      "tur": 3761,
      "tues": 3762,
      "##her": 3763,
      "##rous": 3764,
      "##oid": 3765,
      "##erk": 3766,
      "states": 3767,
      "##iod": 3768,
      "loving": 3769,
      "blame": 3770,
      "period": 3771,
      "lugg": 3772,
      "bread": 3773,
      "slain": 3774,
      "##itional": 3775,
      "masters": 3776,
      "reads": 3777,
      "souls": 3778,
      "##cribe": 3779,
      "enemies": 3780,
      "merchant": 3781,
      "pyramus": 3782,
      "catesby": 3783,
      "soothsayer": 3784,
      "tuesday": 3785,
      "dies": 3786,
      "rise": 3787,
      "rude": 3788,
      "##bid": 3789,
      "##icle": 3790,
      "decl": 3791,
      "twel": 3792,
      "##ianus": 3793,
      "##lier": 3794,
      "title": 3795,
      "author": 3796,
      "colour": 3797,
      "arrange": 3798,
      "copy": 3799,
      "whilst": 3800,
      "latest": 3801,
      "david": 3802,
      "cere": 3803,
      "mater": 3804,
      "pit": 3805,
      "wang": 3806,
      "waste": 3807,
      "##yza": 3808,
      "washing": 3809,
      "courses": 3810,
      "result": 3811,
      "indust": 3812,
      "support": 3813,
      "forgive": 3814,
      "enjoyed": 3815,
      "occasion": 3816,
      "dionyza": 3817,
      "luggage": 3818,
      "gri": 3819,
      "lic": 3820,
      "meal": 3821,
      "shad": 3822,
      "##endower": 3823,
      "alive": 3824,
      "ours": 3825,
      "unk": 3826,
      "glendower": 3827,
      "poins": 3828,
      "stranger": 3829,
      "consent": 3830,
      "tyr": 3831,
      "harry": 3832,
      "basket": 3833,
      "##oult": 3834,
      "gardiner": 3835,
      "middle": 3836,
      "twelve": 3837,
      "ju": 3838,
      "non": 3839,
      "van": 3840,
      "##cil": 3841,
      "##sed": 3842,
      "bears": 3843,
      "##raph": 3844,
      "kings": 3845,
      "worried": 3846,
      "firm": 3847,
      "##ips": 3848,
      "curse": 3849,
      "drinking": 3850,
      "airport": 3851,
      "management": 3852,
      "wisdom": 3853,
      "familiar": 3854,
      "application": 3855,
      "congratulations": 3856,
      "econ": 3857,
      "tast": 3858,
      "##den": 3859,
      "##oices": 3860,
      "##bers": 3861,
      "##ze": 3862,
      "anim": 3863,
      "inj": 3864,
      "beard": 3865,
      "share": 3866,
      "pride": 3867,
      "prices": 3868,
      "looked": 3869,
      "blunt": 3870,
      "block": 3871,
      "breed": 3872,
      "execut": 3873,
      "attract": 3874,
      "##claim": 3875,
      "costs": 3876,
      "##ival": 3877,
      "winds": 3878,
      "inside": 3879,
      "bottle": 3880,
      "healthy": 3881,
      "concert": 3882,
      "hid": 3883,
      "lower": 3884,
      "nerv": 3885,
      "tor": 3886,
      "##ients": 3887,
      "thais": 3888,
      "##ically": 3889,
      "wealth": 3890,
      "forbid": 3891,
      "##illy": 3892,
      "##ioch": 3893,
      "comb": 3894,
      "quince": 3895,
      "somewhere": 3896,
      "roll": 3897,
      "perceive": 3898,
      "##roclus": 3899,
      "adie": 3900,
      "elbow": 3901,
      "hearing": 3902,
      "buying": 3903,
      "easily": 3904,
      "tyb": 3905,
      "patroclus": 3906,
      "pieces": 3907,
      "damn": 3908,
      "details": 3909,
      "acquaint": 3910,
      "thaisa": 3911,
      "11": 3912,
      "cars": 3913,
      "##bles": 3914,
      "##ased": 3915,
      "forty": 3916,
      "frank": 3917,
      "smile": 3918,
      "valour": 3919,
      "foolish": 3920,
      "register": 3921,
      "##otten": 3922,
      "confirm": 3923,
      "advantage": 3924,
      "humour": 3925,
      "plane": 3926,
      "cream": 3927,
      "mortal": 3928,
      "opportunity": 3929,
      "judgment": 3930,
      "safety": 3931,
      "tybalt": 3932,
      "sens": 3933,
      "yon": 3934,
      "##ded": 3935,
      "##ara": 3936,
      "however": 3937,
      "conqu": 3938,
      "anymore": 3939,
      "antioch": 3940,
      "moving": 3941,
      "commun": 3942,
      "jobs": 3943,
      "beggar": 3944,
      "legs": 3945,
      "solinus": 3946,
      "thursday": 3947,
      "hungry": 3948,
      "techn": 3949,
      "nervous": 3950,
      "adieu": 3951,
      "fancy": 3952,
      "hous": 3953,
      "mich": 3954,
      "##ores": 3955,
      "##itive": 3956,
      "exh": 3957,
      "##ung": 3958,
      "amen": 3959,
      "unw": 3960,
      "broth": 3961,
      "rog": 3962,
      "nights": 3963,
      "visa": 3964,
      "dogs": 3965,
      "cooking": 3966,
      "dishon": 3967,
      "profession": 3968,
      "connect": 3969,
      "econom": 3970,
      "boult": 3971,
      "fond": 3972,
      "##aper": 3973,
      "##leep": 3974,
      "##utation": 3975,
      "##ille": 3976,
      "outl": 3977,
      "caught": 3978,
      "corpor": 3979,
      "advance": 3980,
      "lights": 3981,
      "discover": 3982,
      "bassianus": 3983,
      "customer": 3984,
      "fifteen": 3985,
      "vegetables": 3986,
      "dancing": 3987,
      "fantastic": 3988,
      "500": 3989,
      "et": 3990,
      "fle": 3991,
      "je": 3992,
      "mood": 3993,
      "rivers": 3994,
      "ted": 3995,
      "vow": 3996,
      "vict": 3997,
      "##gage": 3998,
      "thunder": 3999,
      "##ators": 4000,
      "shan": 4001,
      "stone": 4002,
      "asleep": 4003,
      "lock": 4004,
      "brook": 4005,
      "manner": 4006,
      "##iece": 4007,
      "rock": 4008,
      "coat": 4009,
      "everybody": 4010,
      "parking": 4011,
      "smil": 4012,
      "commission": 4013,
      "retire": 4014,
      "silver": 4015,
      "relation": 4016,
      "bitter": 4017,
      "dishes": 4018,
      "deeds": 4019,
      "delight": 4020,
      "##ocol": 4021,
      "felt": 4022,
      "hunt": 4023,
      "nath": 4024,
      "osw": 4025,
      "##vius": 4026,
      "##pes": 4027,
      "stress": 4028,
      "##unately": 4029,
      "uns": 4030,
      "##itten": 4031,
      "deserve": 4032,
      "friendly": 4033,
      "meaning": 4034,
      "##action": 4035,
      "beginning": 4036,
      "skills": 4037,
      "silvius": 4038,
      "human": 4039,
      "delivery": 4040,
      "conditions": 4041,
      "customers": 4042,
      "##moreland": 4043,
      "westmoreland": 4044,
      "oswald": 4045,
      "19": 4046,
      "pun": 4047,
      "pem": 4048,
      "wast": 4049,
      "##read": 4050,
      "##edy": 4051,
      "forsw": 4052,
      "stan": 4053,
      "stol": 4054,
      "chocol": 4055,
      "##ops": 4056,
      "conce": 4057,
      "overtime": 4058,
      "menu": 4059,
      "earn": 4060,
      "carl": 4061,
      "subway": 4062,
      "fourth": 4063,
      "instant": 4064,
      "golden": 4065,
      "package": 4066,
      "cele": 4067,
      "tower": 4068,
      "documents": 4069,
      "items": 4070,
      "pembroke": 4071,
      "east": 4072,
      "ld": 4073,
      "na": 4074,
      "oil": 4075,
      "wert": 4076,
      "wester": 4077,
      "##ler": 4078,
      "##ope": 4079,
      "##aring": 4080,
      "##ripp": 4081,
      "troth": 4082,
      "travell": 4083,
      "prayers": 4084,
      "pleasant": 4085,
      "steven": 4086,
      "awake": 4087,
      "divor": 4088,
      "susan": 4089,
      "thurio": 4090,
      ":'": 4091,
      "##nis": 4092,
      "##oved": 4093,
      "thri": 4094,
      "##etta": 4095,
      "weigh": 4096,
      "shot": 4097,
      "liked": 4098,
      "suits": 4099,
      "cloud": 4100,
      "plague": 4101,
      "##agues": 4102,
      "flower": 4103,
      "hadst": 4104,
      "##ache": 4105,
      "otherwise": 4106,
      "certific": 4107,
      "falls": 4108,
      "drawn": 4109,
      "virtuous": 4110,
      "delicious": 4111,
      "education": 4112,
      "alarum": 4113,
      "nathaniel": 4114,
      "eld": 4115,
      "eur": 4116,
      "ow": 4117,
      "pm": 4118,
      "sings": 4119,
      "vouch": 4120,
      "##erg": 4121,
      "##enter": 4122,
      "inno": 4123,
      "infect": 4124,
      "forest": 4125,
      "##iring": 4126,
      "reasons": 4127,
      "##ilty": 4128,
      "jove": 4129,
      "##phone": 4130,
      "poll": 4131,
      "grown": 4132,
      "honesty": 4133,
      "profit": 4134,
      "dispatch": 4135,
      "storm": 4136,
      "pictures": 4137,
      "cheaper": 4138,
      "square": 4139,
      "climb": 4140,
      "monster": 4141,
      "purchase": 4142,
      "stanley": 4143,
      "gas": 4144,
      "jane": 4145,
      "mere": 4146,
      "ru": 4147,
      "vain": 4148,
      "wide": 4149,
      "##par": 4150,
      "##atures": 4151,
      "##iture": 4152,
      "##chief": 4153,
      "##ellow": 4154,
      "longav": 4155,
      "salad": 4156,
      "##ullus": 4157,
      "army": 4158,
      "servants": 4159,
      "walking": 4160,
      "##iction": 4161,
      "improve": 4162,
      "treason": 4163,
      "driver": 4164,
      "finger": 4165,
      "ignor": 4166,
      "celeb": 4167,
      "longaville": 4168,
      "gates": 4169,
      "gym": 4170,
      "hat": 4171,
      "numb": 4172,
      "pains": 4173,
      "sour": 4174,
      "##ples": 4175,
      "dol": 4176,
      "lift": 4177,
      "##rier": 4178,
      "##unning": 4179,
      "##aker": 4180,
      "lovell": 4181,
      "##quet": 4182,
      "lucetta": 4183,
      "struck": 4184,
      "corin": 4185,
      "hardly": 4186,
      "persu": 4187,
      "following": 4188,
      "huge": 4189,
      "fisherman": 4190,
      "faults": 4191,
      "smooth": 4192,
      "neighbour": 4193,
      "satisfied": 4194,
      "scarce": 4195,
      "increase": 4196,
      "newspaper": 4197,
      "antiochus": 4198,
      "sitting": 4199,
      "##wan": 4200,
      "##orge": 4201,
      "##iment": 4202,
      "##ria": 4203,
      "##rib": 4204,
      "##ulous": 4205,
      "##osition": 4206,
      "troy": 4207,
      "served": 4208,
      "appet": 4209,
      "paying": 4210,
      "##force": 4211,
      "recover": 4212,
      "steward": 4213,
      "practice": 4214,
      "continue": 4215,
      "towards": 4216,
      "taiwan": 4217,
      "bare": 4218,
      "os": 4219,
      "rout": 4220,
      "tie": 4221,
      "##ray": 4222,
      "##aised": 4223,
      "##vest": 4224,
      "##ches": 4225,
      "stam": 4226,
      "stain": 4227,
      "kneel": 4228,
      "thinks": 4229,
      "agripp": 4230,
      "robert": 4231,
      "glory": 4232,
      "courtes": 4233,
      "grou": 4234,
      "checking": 4235,
      "happens": 4236,
      "eros": 4237,
      "staying": 4238,
      "imposs": 4239,
      "easier": 4240,
      "repair": 4241,
      "invite": 4242,
      "gaoler": 4243,
      "miles": 4244,
      "williams": 4245,
      "suddenly": 4246,
      "completely": 4247,
      "bleed": 4248,
      "cruel": 4249,
      "agrippa": 4250,
      "18": 4251,
      "cents": 4252,
      "pure": 4253,
      "ras": 4254,
      "##ted": 4255,
      "##sy": 4256,
      "##de": 4257,
      "thither": 4258,
      "##orth": 4259,
      "##enance": 4260,
      "##rage": 4261,
      "nobody": 4262,
      "dece": 4263,
      "##ilities": 4264,
      "manners": 4265,
      "##ists": 4266,
      "smart": 4267,
      "smoke": 4268,
      "##enstern": 4269,
      "empt": 4270,
      "##glas": 4271,
      "remind": 4272,
      "douglas": 4273,
      "intend": 4274,
      "guildenstern": 4275,
      "odd": 4276,
      "sly": 4277,
      "uh": 4278,
      "wench": 4279,
      "webs": 4280,
      "heels": 4281,
      "##ghai": 4282,
      "goodness": 4283,
      "loc": 4284,
      "##eless": 4285,
      "greater": 4286,
      "moder": 4287,
      "below": 4288,
      "norm": 4289,
      "christian": 4290,
      "castle": 4291,
      "gainst": 4292,
      "furniture": 4293,
      "immediately": 4294,
      "spoken": 4295,
      "shanghai": 4296,
      "cy": 4297,
      "egy": 4298,
      "german": 4299,
      "obey": 4300,
      "pil": 4301,
      "pound": 4302,
      "rat": 4303,
      "rule": 4304,
      "va": 4305,
      "wra": 4306,
      "##mark": 4307,
      "##ife": 4308,
      "##ael": 4309,
      "section": 4310,
      "level": 4311,
      "load": 4312,
      "ups": 4313,
      "##elius": 4314,
      "flat": 4315,
      "menas": 4316,
      "written": 4317,
      "keeping": 4318,
      "explain": 4319,
      "regard": 4320,
      "sky": 4321,
      "gonna": 4322,
      "funny": 4323,
      "avoid": 4324,
      "bags": 4325,
      "painter": 4326,
      "gifts": 4327,
      "affection": 4328,
      "trumpet": 4329,
      "telephone": 4330,
      "reignier": 4331,
      "promotion": 4332,
      "egypt": 4333,
      "40": 4334,
      "dust": 4335,
      "mass": 4336,
      "push": 4337,
      "ren": 4338,
      "##mit": 4339,
      "##zz": 4340,
      "whither": 4341,
      "##ril": 4342,
      "clerk": 4343,
      "united": 4344,
      "brings": 4345,
      "branch": 4346,
      "spl": 4347,
      "moor": 4348,
      "guide": 4349,
      "cards": 4350,
      "##bear": 4351,
      "salt": 4352,
      "daily": 4353,
      "fearful": 4354,
      "dollar": 4355,
      "tennis": 4356,
      "reasonable": 4357,
      "cornelius": 4358,
      "##mony": 4359,
      "guests": 4360,
      "encoun": 4361,
      "juice": 4362,
      "bother": 4363,
      "center": 4364,
      "dess": 4365,
      "fed": 4366,
      "fest": 4367,
      "jen": 4368,
      "wits": 4369,
      "##ials": 4370,
      "tooth": 4371,
      "chir": 4372,
      "##derick": 4373,
      "greek": 4374,
      "offend": 4375,
      "bull": 4376,
      "##ension": 4377,
      "earlier": 4378,
      "apolog": 4379,
      "relig": 4380,
      "calm": 4381,
      "huh": 4382,
      "frederick": 4383,
      "utter": 4384,
      "imagine": 4385,
      "conference": 4386,
      "exhib": 4387,
      "chocolate": 4388,
      "dessert": 4389,
      ":--": 4390,
      "cult": 4391,
      "cunning": 4392,
      "faster": 4393,
      "fund": 4394,
      "niece": 4395,
      "sides": 4396,
      "##hold": 4397,
      "##nic": 4398,
      "##gest": 4399,
      "##son": 4400,
      "##ey": 4401,
      "##pet": 4402,
      "##ato": 4403,
      "##encon": 4404,
      "##itors": 4405,
      "revol": 4406,
      "yourselves": 4407,
      "alencon": 4408,
      "unfort": 4409,
      "greet": 4410,
      "##perate": 4411,
      "precious": 4412,
      "cheese": 4413,
      "mac": 4414,
      "bestow": 4415,
      "value": 4416,
      "younger": 4417,
      "booked": 4418,
      "skill": 4419,
      "transport": 4420,
      "delivered": 4421,
      "expected": 4422,
      "allowed": 4423,
      "numbers": 4424,
      "impossible": 4425,
      "barb": 4426,
      "national": 4427,
      "rank": 4428,
      "sixt": 4429,
      "##gent": 4430,
      "##vent": 4431,
      "whis": 4432,
      "stat": 4433,
      "deceive": 4434,
      "alice": 4435,
      "##pped": 4436,
      "grey": 4437,
      "swift": 4438,
      "fright": 4439,
      "ideas": 4440,
      "sleeping": 4441,
      "colle": 4442,
      "defend": 4443,
      "barg": 4444,
      "memory": 4445,
      "##ipped": 4446,
      "pressure": 4447,
      "engine": 4448,
      "surprised": 4449,
      "circum": 4450,
      "challen": 4451,
      "camera": 4452,
      "shadow": 4453,
      "relationship": 4454,
      "aid": 4455,
      "civ": 4456,
      "iron": 4457,
      "mum": 4458,
      "rail": 4459,
      "sore": 4460,
      "wounds": 4461,
      "##orous": 4462,
      "chann": 4463,
      "##icked": 4464,
      "mayor": 4465,
      "guilty": 4466,
      "finding": 4467,
      "##wards": 4468,
      "fairly": 4469,
      "depend": 4470,
      "standing": 4471,
      "ends": 4472,
      "starting": 4473,
      "career": 4474,
      "champ": 4475,
      "obed": 4476,
      "object": 4477,
      "blessed": 4478,
      "boring": 4479,
      "arrest": 4480,
      "arrived": 4481,
      "throat": 4482,
      "maintain": 4483,
      "results": 4484,
      "michael": 4485,
      "gown": 4486,
      "##ks": 4487,
      "##yond": 4488,
      "##iny": 4489,
      "##asar": 4490,
      "beyond": 4491,
      "hal": 4492,
      "frown": 4493,
      "lover": 4494,
      "loath": 4495,
      "unp": 4496,
      "whereof": 4497,
      "flood": 4498,
      "dire": 4499,
      "desires": 4500,
      "activ": 4501,
      "##ograph": 4502,
      "folly": 4503,
      "taught": 4504,
      "##ibility": 4505,
      "streets": 4506,
      "creature": 4507,
      "breathe": 4508,
      "delay": 4509,
      "fixed": 4510,
      "envy": 4511,
      "balthasar": 4512,
      "western": 4513,
      "bend": 4514,
      "dick": 4515,
      "deter": 4516,
      "fits": 4517,
      "loose": 4518,
      "names": 4519,
      "porter": 4520,
      "##uation": 4521,
      "##te": 4522,
      "##ering": 4523,
      "##orious": 4524,
      "##oman": 4525,
      "prolog": 4526,
      "##ula": 4527,
      "proclaim": 4528,
      "spot": 4529,
      "imm": 4530,
      "score": 4531,
      "tear": 4532,
      "teeth": 4533,
      "passed": 4534,
      "sett": 4535,
      "friendship": 4536,
      "horri": 4537,
      "holds": 4538,
      "sooner": 4539,
      "finan": 4540,
      "wednes": 4541,
      "directly": 4542,
      "montague": 4543,
      "arrive": 4544,
      "embrace": 4545,
      "george": 4546,
      "responsible": 4547,
      "griff": 4548,
      "brothers": 4549,
      "chiron": 4550,
      "wednesday": 4551,
      "''": 4552,
      "hong": 4553,
      "led": 4554,
      "muse": 4555,
      "nut": 4556,
      "ori": 4557,
      "ran": 4558,
      "tough": 4559,
      "##bed": 4560,
      "habit": 4561,
      "##icient": 4562,
      "##ala": 4563,
      "##char": 4564,
      "dozen": 4565,
      "reb": 4566,
      "##illon": 4567,
      "seats": 4568,
      "##cket": 4569,
      "debt": 4570,
      "bride": 4571,
      "proc": 4572,
      "spicy": 4573,
      "built": 4574,
      "scr": 4575,
      "dism": 4576,
      "charity": 4577,
      "text": 4578,
      "fairy": 4579,
      "trial": 4580,
      "trium": 4581,
      "checked": 4582,
      "silence": 4583,
      "fellows": 4584,
      "points": 4585,
      "miser": 4586,
      "motion": 4587,
      "covered": 4588,
      "subjects": 4589,
      "melanch": 4590,
      "wretched": 4591,
      "derby": 4592,
      "introduce": 4593,
      "industry": 4594,
      "empty": 4595,
      "bones": 4596,
      "goth": 4597,
      "hom": 4598,
      "math": 4599,
      "nap": 4600,
      "powers": 4601,
      "##head": 4602,
      "##sem": 4603,
      "##imum": 4604,
      "leis": 4605,
      "marcell": 4606,
      "alack": 4607,
      "usur": 4608,
      "fled": 4609,
      "crom": 4610,
      "thrice": 4611,
      "##iety": 4612,
      "curt": 4613,
      "protest": 4614,
      "humph": 4615,
      "missed": 4616,
      "aught": 4617,
      "tempt": 4618,
      "semester": 4619,
      "virgin": 4620,
      "becomes": 4621,
      "aemelia": 4622,
      "liberty": 4623,
      "courtesy": 4624,
      "encounter": 4625,
      "prologue": 4626,
      "griffith": 4627,
      "melancholy": 4628,
      "marcellus": 4629,
      "gam": 4630,
      "oly": 4631,
      "rad": 4632,
      "rice": 4633,
      "vot": 4634,
      "yellow": 4635,
      "##bur": 4636,
      "##book": 4637,
      "##ored": 4638,
      "##anish": 4639,
      "##rees": 4640,
      "##urity": 4641,
      "sugar": 4642,
      "conj": 4643,
      "brow": 4644,
      "##ppy": 4645,
      "fever": 4646,
      "played": 4647,
      "strict": 4648,
      "endure": 4649,
      "bearing": 4650,
      "reputation": 4651,
      "constant": 4652,
      "affairs": 4653,
      "grows": 4654,
      "practise": 4655,
      "montano": 4656,
      "motor": 4657,
      "sands": 4658,
      "prisoner": 4659,
      "equal": 4660,
      "trumpets": 4661,
      "surveyor": 4662,
      "outlaw": 4663,
      "triumph": 4664,
      "cromwell": 4665,
      "olymp": 4666,
      "bite": 4667,
      "cart": 4668,
      "jun": 4669,
      "jump": 4670,
      "lin": 4671,
      "lart": 4672,
      "wicked": 4673,
      "hail": 4674,
      "##tery": 4675,
      "##ented": 4676,
      "chain": 4677,
      "##uled": 4678,
      "twixt": 4679,
      "complain": 4680,
      "greatest": 4681,
      "apple": 4682,
      "bigger": 4683,
      "steel": 4684,
      "##anced": 4685,
      "baggage": 4686,
      "argument": 4687,
      "##ragon": 4688,
      "yonder": 4689,
      "carlisle": 4690,
      "lartius": 4691,
      "bount": 4692,
      "cig": 4693,
      "mat": 4694,
      "rans": 4695,
      "tut": 4696,
      "##mn": 4697,
      "##ts": 4698,
      "##esome": 4699,
      "##stance": 4700,
      "convey": 4701,
      "sheep": 4702,
      "plot": 4703,
      "arragon": 4704,
      "anywhere": 4705,
      "spr": 4706,
      "fried": 4707,
      "deser": 4708,
      "desert": 4709,
      "##ierce": 4710,
      "starts": 4711,
      "supper": 4712,
      "walter": 4713,
      "trem": 4714,
      "##board": 4715,
      "marketing": 4716,
      "shoot": 4717,
      "members": 4718,
      "jewel": 4719,
      "agreement": 4720,
      "animals": 4721,
      "financial": 4722,
      "humphrey": 4723,
      "16": 4724,
      "fain": 4725,
      "hill": 4726,
      "jam": 4727,
      "rules": 4728,
      "silly": 4729,
      "##ez": 4730,
      "##earch": 4731,
      "##val": 4732,
      "threat": 4733,
      "##ening": 4734,
      "invol": 4735,
      "hap": 4736,
      "weary": 4737,
      "shore": 4738,
      "trim": 4739,
      "thence": 4740,
      "blush": 4741,
      "greatness": 4742,
      "research": 4743,
      "players": 4744,
      "roses": 4745,
      "slander": 4746,
      "foods": 4747,
      "trees": 4748,
      "singing": 4749,
      "tongues": 4750,
      "crack": 4751,
      "expecting": 4752,
      "medium": 4753,
      "secretary": 4754,
      "quarter": 4755,
      "shipment": 4756,
      "totally": 4757,
      "hoping": 4758,
      "benefits": 4759,
      "stolen": 4760,
      "determ": 4761,
      "jan": 4762,
      "length": 4763,
      "mild": 4764,
      "rh": 4765,
      "tend": 4766,
      "tune": 4767,
      "vide": 4768,
      "##aves": 4769,
      "##lies": 4770,
      "##lace": 4771,
      "##xx": 4772,
      "##inary": 4773,
      "anger": 4774,
      "stretch": 4775,
      "prize": 4776,
      "goodly": 4777,
      "consp": 4778,
      "whence": 4779,
      "flies": 4780,
      "perf": 4781,
      "princely": 4782,
      "follows": 4783,
      "steak": 4784,
      "understanding": 4785,
      "wearing": 4786,
      "computers": 4787,
      "romans": 4788,
      "temperature": 4789,
      "eggs": 4790,
      "factory": 4791,
      "license": 4792,
      "rogue": 4793,
      "website": 4794,
      "bargain": 4795,
      "'''": 4796,
      "leisure": 4797,
      "bark": 4798,
      "dwell": 4799,
      "hors": 4800,
      "mend": 4801,
      "wan": 4802,
      "##bishop": 4803,
      "##ws": 4804,
      "##itation": 4805,
      "inqu": 4806,
      "island": 4807,
      "weap": 4808,
      "former": 4809,
      "repe": 4810,
      "nowad": 4811,
      "unha": 4812,
      "##istration": 4813,
      "homework": 4814,
      "president": 4815,
      "standard": 4816,
      "april": 4817,
      "skirt": 4818,
      "runs": 4819,
      "pedant": 4820,
      "maiden": 4821,
      "borne": 4822,
      "##ipping": 4823,
      "suspect": 4824,
      "neighbor": 4825,
      "boxes": 4826,
      "instruct": 4827,
      "cheeks": 4828,
      "archbishop": 4829,
      "austral": 4830,
      "extreme": 4831,
      "fought": 4832,
      "faint": 4833,
      "mix": 4834,
      "pi": 4835,
      "##bby": 4836,
      "thief": 4837,
      "##eds": 4838,
      "lip": 4839,
      "##amour": 4840,
      "exceed": 4841,
      "##ourse": 4842,
      "concl": 4843,
      "joint": 4844,
      "shouldst": 4845,
      "needed": 4846,
      "bod": 4847,
      "helps": 4848,
      "sweat": 4849,
      "idle": 4850,
      "slight": 4851,
      "turns": 4852,
      "beau": 4853,
      "honours": 4854,
      "assure": 4855,
      "malice": 4856,
      "formal": 4857,
      "lands": 4858,
      "oppos": 4859,
      "seriously": 4860,
      "burning": 4861,
      "including": 4862,
      "included": 4863,
      "athens": 4864,
      "million": 4865,
      "solemn": 4866,
      "simply": 4867,
      "punish": 4868,
      "festival": 4869,
      "civil": 4870,
      "horrible": 4871,
      "nowadays": 4872,
      "cuck": 4873,
      "fame": 4874,
      "rag": 4875,
      "##ien": 4876,
      "##arant": 4877,
      "ing": 4878,
      "##chance": 4879,
      "stones": 4880,
      "noticed": 4881,
      "knee": 4882,
      "lean": 4883,
      "plead": 4884,
      "blows": 4885,
      "twill": 4886,
      "complex": 4887,
      "enterpr": 4888,
      "madness": 4889,
      "helping": 4890,
      "##lets": 4891,
      "hire": 4892,
      "deserved": 4893,
      "##avia": 4894,
      "happiness": 4895,
      "accom": 4896,
      "minister": 4897,
      "apart": 4898,
      "ended": 4899,
      "octavia": 4900,
      "repent": 4901,
      "cities": 4902,
      "assured": 4903,
      "invited": 4904,
      "##bridge": 4905,
      "produce": 4906,
      "courage": 4907,
      "damned": 4908,
      "professor": 4909,
      "benefit": 4910,
      "dreadful": 4911,
      "journey": 4912,
      "character": 4913,
      "horses": 4914,
      "pool": 4915,
      "pitch": 4916,
      "vows": 4917,
      "thick": 4918,
      "##ero": 4919,
      "meals": 4920,
      "shrew": 4921,
      "doors": 4922,
      "##ament": 4923,
      "cancel": 4924,
      "ability": 4925,
      "quoth": 4926,
      "condem": 4927,
      "unc": 4928,
      "##ieves": 4929,
      "laund": 4930,
      "helpful": 4931,
      "mostly": 4932,
      "guarant": 4933,
      "wrath": 4934,
      "monst": 4935,
      "reserve": 4936,
      "kindness": 4937,
      "access": 4938,
      "messala": 4939,
      "wrongs": 4940,
      "humble": 4941,
      "inspect": 4942,
      "swords": 4943,
      "changes": 4944,
      "successful": 4945,
      "pinch": 4946,
      "slaughter": 4947,
      "communic": 4948,
      "certificate": 4949,
      "dolabella": 4950,
      "unfortunately": 4951,
      "scroop": 4952,
      "dat": 4953,
      "ease": 4954,
      "##cing": 4955,
      "##vis": 4956,
      "cand": 4957,
      "##iable": 4958,
      "spanish": 4959,
      "putting": 4960,
      "salanio": 4961,
      "shower": 4962,
      "undert": 4963,
      "schools": 4964,
      "silk": 4965,
      "subs": 4966,
      "nearly": 4967,
      "achieve": 4968,
      "conduct": 4969,
      "entr": 4970,
      "cupid": 4971,
      "urs": 4972,
      "listening": 4973,
      "limit": 4974,
      "##ground": 4975,
      "surprise": 4976,
      "savings": 4977,
      "advertis": 4978,
      "italian": 4979,
      "cigar": 4980,
      "monstrous": 4981,
      "coo": 4982,
      "cried": 4983,
      "dor": 4984,
      "file": 4985,
      "kil": 4986,
      "mour": 4987,
      "sack": 4988,
      "wre": 4989,
      "##app": 4990,
      "##vision": 4991,
      "##friend": 4992,
      "##itic": 4993,
      "forms": 4994,
      "shout": 4995,
      "##andra": 4996,
      "export": 4997,
      "lovers": 4998,
      "alto": 4999,
      "##achel": 5000,
      "buck": 5001,
      "dial": 5002,
      "belong": 5003,
      "plays": 5004,
      "sweater": 5005,
      "begins": 5006,
      "remembr": 5007,
      "acr": 5008,
      "opening": 5009,
      "buried": 5010,
      "flying": 5011,
      "include": 5012,
      "direction": 5013,
      "drops": 5014,
      "montjoy": 5015,
      "model": 5016,
      "bathroom": 5017,
      "entertainment": 5018,
      "traditional": 5019,
      "tailor": 5020,
      "houses": 5021,
      "modern": 5022,
      "challenge": 5023,
      "museum": 5024,
      "video": 5025,
      "ursula": 5026,
      "cigaret": 5027,
      "13": 5028,
      "300": 5029,
      "piz": 5030,
      "rene": 5031,
      "tid": 5032,
      "wet": 5033,
      "##cul": 5034,
      "##cli": 5035,
      "##lor": 5036,
      "##pic": 5037,
      "whit": 5038,
      "##uten": 5039,
      "forbear": 5040,
      "height": 5041,
      "shel": 5042,
      "doom": 5043,
      "cher": 5044,
      "knees": 5045,
      "##peius": 5046,
      "##athers": 5047,
      "clients": 5048,
      "fears": 5049,
      "wanton": 5050,
      "speci": 5051,
      "duc": 5052,
      "desc": 5053,
      "##iously": 5054,
      "senators": 5055,
      "wives": 5056,
      "campeius": 5057,
      "lieuten": 5058,
      "evil": 5059,
      "laws": 5060,
      "generally": 5061,
      "concern": 5062,
      "mountains": 5063,
      "graduate": 5064,
      "destro": 5065,
      "assistant": 5066,
      "physic": 5067,
      "24": 5068,
      "fra": 5069,
      "kins": 5070,
      "rap": 5071,
      "wing": 5072,
      "ward": 5073,
      "##dain": 5074,
      "##ba": 5075,
      "##inor": 5076,
      "heed": 5077,
      "reward": 5078,
      "pron": 5079,
      "notes": 5080,
      "butter": 5081,
      "##verse": 5082,
      "chief": 5083,
      "##agger": 5084,
      "fax": 5085,
      "##assad": 5086,
      "spoil": 5087,
      "sauce": 5088,
      "##roll": 5089,
      "betray": 5090,
      "desperate": 5091,
      "hasn": 5092,
      "elinor": 5093,
      "iden": 5094,
      "article": 5095,
      "err": 5096,
      "stayed": 5097,
      "harder": 5098,
      "schol": 5099,
      "tread": 5100,
      "discourse": 5101,
      "intell": 5102,
      "killed": 5103,
      "fiend": 5104,
      "distance": 5105,
      "officers": 5106,
      "venge": 5107,
      "broad": 5108,
      "weeping": 5109,
      "midnight": 5110,
      "ambassad": 5111,
      "river": 5112,
      "disgu": 5113,
      "negot": 5114,
      "tribunes": 5115,
      "authority": 5116,
      "professional": 5117,
      "europe": 5118,
      "group": 5119,
      "colleagues": 5120,
      "ransom": 5121,
      "unhappy": 5122,
      "lieutenant": 5123,
      "bonus": 5124,
      "gad": 5125,
      "san": 5126,
      "sara": 5127,
      "##uced": 5128,
      "##born": 5129,
      "##woman": 5130,
      "##inct": 5131,
      "##very": 5132,
      "sue": 5133,
      "##ieur": 5134,
      "usual": 5135,
      "offices": 5136,
      "tells": 5137,
      "diss": 5138,
      "guilt": 5139,
      "charged": 5140,
      "signs": 5141,
      "fully": 5142,
      "falling": 5143,
      "seeming": 5144,
      "betwixt": 5145,
      "shortly": 5146,
      "propert": 5147,
      "absence": 5148,
      "suggestions": 5149,
      "stories": 5150,
      "##ology": 5151,
      "gallant": 5152,
      "oaths": 5153,
      "hopes": 5154,
      "lament": 5155,
      "alexander": 5156,
      "britain": 5157,
      "execution": 5158,
      "attractive": 5159,
      "conquer": 5160,
      "dishonour": 5161,
      "clouds": 5162,
      "upset": 5163,
      "altogether": 5164,
      "?'": 5165,
      "aim": 5166,
      "fif": 5167,
      "mult": 5168,
      "mmm": 5169,
      "pour": 5170,
      "vice": 5171,
      "wings": 5172,
      "##cer": 5173,
      "##iance": 5174,
      "##acy": 5175,
      "##with": 5176,
      "##inate": 5177,
      "toast": 5178,
      "stab": 5179,
      "priam": 5180,
      "chair": 5181,
      "##ilar": 5182,
      "frame": 5183,
      "hers": 5184,
      "loyal": 5185,
      "mars": 5186,
      "conv": 5187,
      "brows": 5188,
      "sac": 5189,
      "scre": 5190,
      "disple": 5191,
      "pocket": 5192,
      "bush": 5193,
      "puts": 5194,
      "useful": 5195,
      "watchman": 5196,
      "daughters": 5197,
      "visiting": 5198,
      "temp": 5199,
      "fields": 5200,
      "traveling": 5201,
      "concer": 5202,
      "contrary": 5203,
      "campus": 5204,
      "athen": 5205,
      "whiles": 5206,
      "television": 5207,
      "ripe": 5208,
      "document": 5209,
      "reverend": 5210,
      "magazine": 5211,
      "renown": 5212,
      "jenny": 5213,
      "apologize": 5214,
      "laundry": 5215,
      "across": 5216,
      "renew": 5217,
      "batter": 5218,
      "fury": 5219,
      "rug": 5220,
      "tight": 5221,
      "wat": 5222,
      "zh": 5223,
      "##ris": 5224,
      "##sa": 5225,
      "##lish": 5226,
      "##ories": 5227,
      "##ario": 5228,
      "##ams": 5229,
      "leather": 5230,
      "marvel": 5231,
      "tro": 5232,
      "unl": 5233,
      "##emp": 5234,
      "spite": 5235,
      "strang": 5236,
      "titinius": 5237,
      "tomb": 5238,
      "boyfriend": 5239,
      "prescription": 5240,
      "talked": 5241,
      "studied": 5242,
      "supply": 5243,
      "purs": 5244,
      "decius": 5245,
      "drag": 5246,
      "colours": 5247,
      "situation": 5248,
      "appears": 5249,
      "cleaning": 5250,
      "estate": 5251,
      "languages": 5252,
      "hurts": 5253,
      "effects": 5254,
      "counterfeit": 5255,
      "impressed": 5256,
      "agreed": 5257,
      "slip": 5258,
      "ceremony": 5259,
      "settled": 5260,
      "remembrance": 5261,
      "fifth": 5262,
      "aunt": 5263,
      "dumb": 5264,
      "jup": 5265,
      "lanc": 5266,
      "rus": 5267,
      "sink": 5268,
      "torn": 5269,
      "##came": 5270,
      "##wich": 5271,
      "##llor": 5272,
      "##oms": 5273,
      "haz": 5274,
      "##key": 5275,
      "shift": 5276,
      "review": 5277,
      "stuck": 5278,
      "##allow": 5279,
      "ener": 5280,
      "losing": 5281,
      "convers": 5282,
      "##igence": 5283,
      "ages": 5284,
      "cab": 5285,
      "imper": 5286,
      "science": 5287,
      "scared": 5288,
      "everyday": 5289,
      "##abel": 5290,
      "describe": 5291,
      "appl": 5292,
      "contempt": 5293,
      "remedy": 5294,
      "confident": 5295,
      "accounting": 5296,
      "aug": 5297,
      "vols": 5298,
      "bids": 5299,
      "cases": 5300,
      "dreams": 5301,
      "software": 5302,
      "stores": 5303,
      "various": 5304,
      "satisfaction": 5305,
      "darling": 5306,
      "centre": 5307,
      "forsworn": 5308,
      "divorce": 5309,
      "thrive": 5310,
      "celebrate": 5311,
      "wanna": 5312,
      "entrance": 5313,
      "pizza": 5314,
      "jupiter": 5315,
      "apt": 5316,
      "bind": 5317,
      "cinn": 5318,
      "dying": 5319,
      "ep": 5320,
      "gather": 5321,
      "mall": 5322,
      "oak": 5323,
      "##my": 5324,
      "##teen": 5325,
      "##house": 5326,
      "##ky": 5327,
      "##da": 5328,
      "##eral": 5329,
      "##atic": 5330,
      "##atives": 5331,
      "##itious": 5332,
      "##ases": 5333,
      "prick": 5334,
      "liqu": 5335,
      "canad": 5336,
      "noon": 5337,
      "##iled": 5338,
      "marsh": 5339,
      "closed": 5340,
      "plus": 5341,
      "##ieved": 5342,
      "faces": 5343,
      "mayst": 5344,
      "caus": 5345,
      "offers": 5346,
      "roast": 5347,
      "blanch": 5348,
      "flow": 5349,
      "saved": 5350,
      "##ptions": 5351,
      "everywhere": 5352,
      "bushy": 5353,
      "marks": 5354,
      "foes": 5355,
      "feels": 5356,
      "monthly": 5357,
      "curren": 5358,
      "##aced": 5359,
      "behav": 5360,
      "autom": 5361,
      "colors": 5362,
      "witch": 5363,
      "hanging": 5364,
      "bills": 5365,
      "crowns": 5366,
      "packing": 5367,
      "gardener": 5368,
      "urgent": 5369,
      "ventidius": 5370,
      "budget": 5371,
      "lancaster": 5372,
      "14": 5373,
      "80": 5374,
      "cure": 5375,
      "cries": 5376,
      "dim": 5377,
      "fan": 5378,
      "folk": 5379,
      "render": 5380,
      "##uf": 5381,
      "##gs": 5382,
      "##kin": 5383,
      "##just": 5384,
      "toil": 5385,
      "isabel": 5386,
      "##ldom": 5387,
      "shed": 5388,
      "stage": 5389,
      "stup": 5390,
      "knife": 5391,
      "somebody": 5392,
      "plastic": 5393,
      "##udge": 5394,
      "workers": 5395,
      "coast": 5396,
      "helped": 5397,
      "##izes": 5398,
      "security": 5399,
      "##lied": 5400,
      "papers": 5401,
      "countenance": 5402,
      "older": 5403,
      "warlike": 5404,
      "minds": 5405,
      "attach": 5406,
      "##swain": 5407,
      "##shill": 5408,
      "freely": 5409,
      "angel": 5410,
      "humbly": 5411,
      "nearby": 5412,
      "windows": 5413,
      "attended": 5414,
      "addition": 5415,
      "based": 5416,
      "eleven": 5417,
      "production": 5418,
      "denied": 5419,
      "crying": 5420,
      "machines": 5421,
      "programs": 5422,
      "weakness": 5423,
      "despite": 5424,
      "protector": 5425,
      "balance": 5426,
      "complaint": 5427,
      "boatswain": 5428,
      "unkind": 5429,
      "osric": 5430,
      "orig": 5431,
      "conspir": 5432,
      "negoti": 5433,
      "gadshill": 5434,
      "athenian": 5435,
      "bon": 5436,
      "bike": 5437,
      "dign": 5438,
      "kick": 5439,
      "nation": 5440,
      "rum": 5441,
      "voices": 5442,
      "##ex": 5443,
      "##light": 5444,
      "##ole": 5445,
      "##bon": 5446,
      "thin": 5447,
      "thieves": 5448,
      "##aration": 5449,
      "ang": 5450,
      "##cher": 5451,
      "seas": 5452,
      "nobl": 5453,
      "therein": 5454,
      "fees": 5455,
      "flam": 5456,
      "glo": 5457,
      "compass": 5458,
      "drug": 5459,
      "pear": 5460,
      "parties": 5461,
      "buses": 5462,
      "##ronius": 5463,
      "corrupt": 5464,
      "highly": 5465,
      "began": 5466,
      "waiter": 5467,
      "heavenly": 5468,
      "carefully": 5469,
      "cursed": 5470,
      "watched": 5471,
      "assign": 5472,
      "displ": 5473,
      "films": 5474,
      "mirth": 5475,
      "lamb": 5476,
      "prevail": 5477,
      "graduated": 5478,
      "opportunities": 5479,
      "horns": 5480,
      "photos": 5481,
      "orders": 5482,
      "hollow": 5483,
      "japanese": 5484,
      "basketball": 5485,
      "tedious": 5486,
      "naught": 5487,
      "ruin": 5488,
      "deceived": 5489,
      "director": 5490,
      "australia": 5491,
      "##cliff": 5492,
      "destroy": 5493,
      "ful": 5494,
      "liter": 5495,
      "mask": 5496,
      "rash": 5497,
      "wond": 5498,
      "wander": 5499,
      "##rop": 5500,
      "##ruction": 5501,
      "##eg": 5502,
      "##ds": 5503,
      "##itable": 5504,
      "wears": 5505,
      "shap": 5506,
      "##iding": 5507,
      "##aded": 5508,
      "##ounce": 5509,
      "knowing": 5510,
      "worn": 5511,
      "##agne": 5512,
      "cable": 5513,
      "spur": 5514,
      "root": 5515,
      "##roach": 5516,
      "image": 5517,
      "beloved": 5518,
      "edge": 5519,
      "turning": 5520,
      "headache": 5521,
      "typ": 5522,
      "events": 5523,
      "intent": 5524,
      "straw": 5525,
      "sickness": 5526,
      "distract": 5527,
      "infl": 5528,
      "native": 5529,
      "ambition": 5530,
      "iris": 5531,
      "panth": 5532,
      "encoura": 5533,
      "crowded": 5534,
      "magazines": 5535,
      "innocent": 5536,
      "specific": 5537,
      "ducats": 5538,
      "stupid": 5539,
      "bachel": 5540,
      "ded": 5541,
      "daniel": 5542,
      "ely": 5543,
      "gor": 5544,
      "hy": 5545,
      "lake": 5546,
      "naked": 5547,
      "pic": 5548,
      "range": 5549,
      "vers": 5550,
      "##town": 5551,
      "##cue": 5552,
      "##net": 5553,
      "##fall": 5554,
      "##eria": 5555,
      "##ism": 5556,
      "whore": 5557,
      "hab": 5558,
      "shown": 5559,
      "##imes": 5560,
      "refer": 5561,
      "stroke": 5562,
      "thisbe": 5563,
      "separ": 5564,
      "##antic": 5565,
      "##oses": 5566,
      "alike": 5567,
      "unemp": 5568,
      "spake": 5569,
      "offended": 5570,
      "blank": 5571,
      "##ressed": 5572,
      "boot": 5573,
      "hole": 5574,
      "scrat": 5575,
      "##izing": 5576,
      "disdain": 5577,
      "overd": 5578,
      "traitors": 5579,
      "map": 5580,
      "showing": 5581,
      "committed": 5582,
      "thrust": 5583,
      "throne": 5584,
      "biggest": 5585,
      "slee": 5586,
      "decor": 5587,
      "advise": 5588,
      "deadly": 5589,
      "beaten": 5590,
      "breaks": 5591,
      "##standing": 5592,
      "attendant": 5593,
      "lawful": 5594,
      "smaller": 5595,
      "killing": 5596,
      "hanged": 5597,
      "##loyment": 5598,
      "##ointed": 5599,
      "damage": 5600,
      "files": 5601,
      "refund": 5602,
      "garments": 5603,
      "detail": 5604,
      "griefs": 5605,
      "estab": 5606,
      "esteem": 5607,
      "supermark": 5608,
      "freed": 5609,
      "sandwich": 5610,
      "figures": 5611,
      "robb": 5612,
      "equip": 5613,
      "degrees": 5614,
      "potent": 5615,
      "painted": 5616,
      "fingers": 5617,
      "undone": 5618,
      "chatillon": 5619,
      "materials": 5620,
      "elder": 5621,
      "ratcliff": 5622,
      "deserves": 5623,
      "complexion": 5624,
      "vengeance": 5625,
      "cinna": 5626,
      "currency": 5627,
      "unemployment": 5628,
      "gaz": 5629,
      "groom": 5630,
      "hym": 5631,
      "kong": 5632,
      "nought": 5633,
      "iss": 5634,
      "##uring": 5635,
      "rele": 5636,
      "social": 5637,
      "suck": 5638,
      "ens": 5639,
      "orange": 5640,
      "outward": 5641,
      "shoulder": 5642,
      "grew": 5643,
      "agency": 5644,
      "complic": 5645,
      "swore": 5646,
      "swell": 5647,
      "secure": 5648,
      "fox": 5649,
      "fold": 5650,
      "pays": 5651,
      "commer": 5652,
      "stays": 5653,
      "##gging": 5654,
      "##otted": 5655,
      "event": 5656,
      "added": 5657,
      "council": 5658,
      "suitable": 5659,
      "villany": 5660,
      "courtez": 5661,
      "empress": 5662,
      "craft": 5663,
      "temple": 5664,
      "realm": 5665,
      "virtues": 5666,
      "awful": 5667,
      "banquet": 5668,
      "stephen": 5669,
      "changing": 5670,
      "songs": 5671,
      "alexas": 5672,
      "italy": 5673,
      "birds": 5674,
      "tyrrel": 5675,
      "earnest": 5676,
      "appetite": 5677,
      "involved": 5678,
      "bodies": 5679,
      "opposite": 5680,
      "inspection": 5681,
      "sacred": 5682,
      "tempest": 5683,
      "troj": 5684,
      "panthino": 5685,
      "ege": 5686,
      "mant": 5687,
      "rack": 5688,
      "tort": 5689,
      "##met": 5690,
      "##ten": 5691,
      "##rade": 5692,
      "##oon": 5693,
      "##vive": 5694,
      "##50": 5695,
      "##fl": 5696,
      "whol": 5697,
      "ink": 5698,
      "##stairs": 5699,
      "lily": 5700,
      "soci": 5701,
      "seldom": 5702,
      "gob": 5703,
      "##ardo": 5704,
      "blest": 5705,
      "peril": 5706,
      "vex": 5707,
      "dischar": 5708,
      "parted": 5709,
      "gentlewoman": 5710,
      "grass": 5711,
      "email": 5712,
      "foe": 5713,
      "carpet": 5714,
      "valeria": 5715,
      "braken": 5716,
      "consum": 5717,
      "capit": 5718,
      "ordered": 5719,
      "beside": 5720,
      "stops": 5721,
      "proph": 5722,
      "absent": 5723,
      "dealing": 5724,
      "suggestion": 5725,
      "estim": 5726,
      "modest": 5727,
      "robin": 5728,
      "stocks": 5729,
      "impression": 5730,
      "despair": 5731,
      "climate": 5732,
      "electric": 5733,
      "rascal": 5734,
      "split": 5735,
      "exhibition": 5736,
      "activities": 5737,
      "enterprise": 5738,
      "condemn": 5739,
      "egeus": 5740,
      "brakenbury": 5741,
      "ber": 5742,
      "bour": 5743,
      "lines": 5744,
      "mile": 5745,
      "ox": 5746,
      "ris": 5747,
      "sits": 5748,
      "task": 5749,
      "##mber": 5750,
      "##uing": 5751,
      "##hol": 5752,
      "##gne": 5753,
      "##vy": 5754,
      "##usion": 5755,
      "##vergne": 5756,
      "deb": 5757,
      "##akest": 5758,
      "cave": 5759,
      "veh": 5760,
      "monica": 5761,
      "keys": 5762,
      "begu": 5763,
      "begg": 5764,
      "holding": 5765,
      "armour": 5766,
      "ski": 5767,
      "similar": 5768,
      "treasure": 5769,
      "accounts": 5770,
      "auvergne": 5771,
      "lawy": 5772,
      "philario": 5773,
      "handsome": 5774,
      "larger": 5775,
      "positive": 5776,
      "mischief": 5777,
      "stronger": 5778,
      "growing": 5779,
      "employment": 5780,
      "effort": 5781,
      "dressed": 5782,
      "admit": 5783,
      "modesty": 5784,
      "iras": 5785,
      "instrument": 5786,
      "bowl": 5787,
      "development": 5788,
      "miserable": 5789,
      "##safe": 5790,
      "supermarket": 5791,
      "courtezan": 5792,
      "bern": 5793,
      "keen": 5794,
      "ling": 5795,
      "lent": 5796,
      "tied": 5797,
      "wag": 5798,
      "zeal": 5799,
      "##case": 5800,
      "##water": 5801,
      "##enas": 5802,
      "##asing": 5803,
      "forso": 5804,
      "meca": 5805,
      "shine": 5806,
      "button": 5807,
      "chest": 5808,
      "chem": 5809,
      "atm": 5810,
      "##rated": 5811,
      "quant": 5812,
      "##umes": 5813,
      "rights": 5814,
      "spell": 5815,
      "blown": 5816,
      "perchance": 5817,
      "ads": 5818,
      "serves": 5819,
      "scarus": 5820,
      "downtown": 5821,
      "wont": 5822,
      "carrier": 5823,
      "charges": 5824,
      "commit": 5825,
      "cassandra": 5826,
      "bade": 5827,
      "womb": 5828,
      "brains": 5829,
      "##ibly": 5830,
      "##acle": 5831,
      "sends": 5832,
      "advent": 5833,
      "treach": 5834,
      "tyrant": 5835,
      "##bras": 5836,
      "breathing": 5837,
      "refuse": 5838,
      "banished": 5839,
      "terribly": 5840,
      "painting": 5841,
      "durst": 5842,
      "selling": 5843,
      "darest": 5844,
      "cease": 5845,
      "central": 5846,
      "photograph": 5847,
      "ordinary": 5848,
      "becoming": 5849,
      "registered": 5850,
      "unworth": 5851,
      "economy": 5852,
      "vouchsafe": 5853,
      "channel": 5854,
      "radio": 5855,
      "guarantee": 5856,
      "property": 5857,
      "forsooth": 5858,
      "mecaenas": 5859,
      ".--": 5860,
      "bury": 5861,
      "dan": 5862,
      "hie": 5863,
      "ought": 5864,
      "rub": 5865,
      "tu": 5866,
      "##rid": 5867,
      "##ear": 5868,
      "##vish": 5869,
      "##oured": 5870,
      "##ony": 5871,
      "##aries": 5872,
      "became": 5873,
      "##uts": 5874,
      "##urb": 5875,
      "sees": 5876,
      "ash": 5877,
      "clo": 5878,
      "anytime": 5879,
      "sacri": 5880,
      "coz": 5881,
      "overse": 5882,
      "bred": 5883,
      "finds": 5884,
      "articles": 5885,
      "minimum": 5886,
      "merit": 5887,
      "dearest": 5888,
      "surf": 5889,
      "sleeps": 5890,
      "affl": 5891,
      "returns": 5892,
      "villains": 5893,
      "entire": 5894,
      "maids": 5895,
      "shoe": 5896,
      "appreh": 5897,
      "annoy": 5898,
      "blessing": 5899,
      "penny": 5900,
      "infinite": 5901,
      "knights": 5902,
      "melun": 5903,
      "amazed": 5904,
      "resolved": 5905,
      "tricks": 5906,
      "audience": 5907,
      "unkn": 5908,
      "tastes": 5909,
      "ignorant": 5910,
      "rhym": 5911,
      "cooper": 5912,
      "rugby": 5913,
      "marshal": 5914,
      "bachelor": 5915,
      "freedom": 5916,
      "complicated": 5917,
      "45": 5918,
      "cine": 5919,
      "couch": 5920,
      "fierce": 5921,
      "gun": 5922,
      "oce": 5923,
      "pill": 5924,
      "path": 5925,
      "ram": 5926,
      "raised": 5927,
      "##cast": 5928,
      "##iens": 5929,
      "##back": 5930,
      "##pre": 5931,
      "##inbras": 5932,
      "##onst": 5933,
      "##edge": 5934,
      "aspect": 5935,
      "dew": 5936,
      "lee": 5937,
      "abused": 5938,
      "worm": 5939,
      "alt": 5940,
      "alter": 5941,
      "faced": 5942,
      "lapt": 5943,
      "lazy": 5944,
      "swallow": 5945,
      "peas": 5946,
      "hipp": 5947,
      "disapp": 5948,
      "description": 5949,
      "background": 5950,
      "breaking": 5951,
      "trains": 5952,
      "reserved": 5953,
      "active": 5954,
      "ladyship": 5955,
      "warning": 5956,
      "passing": 5957,
      "trif": 5958,
      "consult": 5959,
      "fortinbras": 5960,
      "hume": 5961,
      "autumn": 5962,
      "inviting": 5963,
      "device": 5964,
      "violent": 5965,
      "steps": 5966,
      "sentence": 5967,
      "qualities": 5968,
      "medical": 5969,
      "leads": 5970,
      "member": 5971,
      "clearly": 5972,
      "variety": 5973,
      "limbs": 5974,
      "prevent": 5975,
      "potato": 5976,
      "austria": 5977,
      "tarry": 5978,
      "sighs": 5979,
      "characters": 5980,
      "bleeding": 5981,
      "located": 5982,
      "wrap": 5983,
      "sixty": 5984,
      "obedience": 5985,
      "perfume": 5986,
      "undertake": 5987,
      "tidings": 5988,
      "kinsman": 5989,
      "screen": 5990,
      "display": 5991,
      "gobbo": 5992,
      "bernardo": 5993,
      "60": 5994,
      "?--": 5995,
      "bi": 5996,
      "cens": 5997,
      "dot": 5998,
      "mic": 5999,
      "vote": 6000,
      "##eing": 6001,
      "##aus": 6002,
      "##oard": 6003,
      "##ober": 6004,
      "##orough": 6005,
      "inher": 6006,
      "##alf": 6007,
      "reck": 6008,
      "wither": 6009,
      "neph": 6010,
      "##unate": 6011,
      "client": 6012,
      "conclus": 6013,
      "##pper": 6014,
      "shoulders": 6015,
      "##ember": 6016,
      "perj": 6017,
      "code": 6018,
      "diam": 6019,
      "gotten": 6020,
      "acting": 6021,
      "attempt": 6022,
      "wax": 6023,
      "slept": 6024,
      "october": 6025,
      "advised": 6026,
      "presentation": 6027,
      "missing": 6028,
      "behalf": 6029,
      "##pson": 6030,
      "devise": 6031,
      "##olyta": 6032,
      "qualified": 6033,
      "expenses": 6034,
      "divine": 6035,
      "garter": 6036,
      "accepted": 6037,
      "frequ": 6038,
      "methought": 6039,
      "princi": 6040,
      "virus": 6041,
      "glasses": 6042,
      "records": 6043,
      "shirts": 6044,
      "virgilia": 6045,
      "neglect": 6046,
      "reverence": 6047,
      "corporation": 6048,
      "ambassador": 6049,
      "hazard": 6050,
      "behavior": 6051,
      "scratch": 6052,
      "society": 6053,
      "capitol": 6054,
      "overseas": 6055,
      "hippolyta": 6056,
      "nephew": 6057,
      "90": 6058,
      "aisle": 6059,
      "cute": 6060,
      "egl": 6061,
      "etern": 6062,
      "hind": 6063,
      "lying": 6064,
      "mong": 6065,
      "tang": 6066,
      "##cceed": 6067,
      "##lines": 6068,
      "thorough": 6069,
      "##eto": 6070,
      "haunt": 6071,
      "mex": 6072,
      "goss": 6073,
      "chop": 6074,
      "chaste": 6075,
      "succeed": 6076,
      "likely": 6077,
      "knaves": 6078,
      "##ulate": 6079,
      "aboard": 6080,
      "sirs": 6081,
      "##igent": 6082,
      "spread": 6083,
      "rocks": 6084,
      "glorious": 6085,
      "compare": 6086,
      "boast": 6087,
      "pace": 6088,
      "monument": 6089,
      "##load": 6090,
      "petition": 6091,
      "senate": 6092,
      "studies": 6093,
      "registration": 6094,
      "forgotten": 6095,
      "dearly": 6096,
      "confidence": 6097,
      "install": 6098,
      "volunt": 6099,
      "seemed": 6100,
      "metal": 6101,
      "meters": 6102,
      "sicilius": 6103,
      "fiery": 6104,
      "basic": 6105,
      "basically": 6106,
      "reports": 6107,
      "elev": 6108,
      "election": 6109,
      "misery": 6110,
      "disposition": 6111,
      "employee": 6112,
      "snack": 6113,
      "##engers": 6114,
      "terrific": 6115,
      "##uleius": 6116,
      "palm": 6117,
      "admir": 6118,
      "150": 6119,
      "engaged": 6120,
      "monsieur": 6121,
      "sailor": 6122,
      "groan": 6123,
      "smiles": 6124,
      "whisper": 6125,
      "proculeius": 6126,
      "cuckold": 6127,
      "wreck": 6128,
      "concerned": 6129,
      "russ": 6130,
      "canada": 6131,
      "hymen": 6132,
      "quantity": 6133,
      "laptop": 6134,
      "21": 6135,
      "cind": 6136,
      "ess": 6137,
      "fathers": 6138,
      "kar": 6139,
      "mas": 6140,
      "raven": 6141,
      "wink": 6142,
      "##mates": 6143,
      "##ux": 6144,
      "##cian": 6145,
      "##yn": 6146,
      "##isy": 6147,
      "forced": 6148,
      "mys": 6149,
      "##chas": 6150,
      "##ids": 6151,
      "liest": 6152,
      "sex": 6153,
      "sept": 6154,
      "select": 6155,
      "goal": 6156,
      "novel": 6157,
      "hereaf": 6158,
      "amiens": 6159,
      "##osop": 6160,
      "que": 6161,
      "conrade": 6162,
      "##uments": 6163,
      "plat": 6164,
      "##istic": 6165,
      "blast": 6166,
      "dram": 6167,
      "wrest": 6168,
      "lucullus": 6169,
      "emerg": 6170,
      "track": 6171,
      "resour": 6172,
      "kindly": 6173,
      "pho": 6174,
      "contrib": 6175,
      "household": 6176,
      "##apers": 6177,
      "attitude": 6178,
      "sets": 6179,
      "beds": 6180,
      "capital": 6181,
      "classical": 6182,
      "followers": 6183,
      "matters": 6184,
      "confound": 6185,
      "impr": 6186,
      "impat": 6187,
      "reply": 6188,
      "calchas": 6189,
      "provided": 6190,
      "attending": 6191,
      "redeem": 6192,
      "creep": 6193,
      "creatures": 6194,
      "philosop": 6195,
      "crave": 6196,
      "basis": 6197,
      "americans": 6198,
      "preparation": 6199,
      "publius": 6200,
      "annual": 6201,
      "sorrows": 6202,
      "##ification": 6203,
      "prisoners": 6204,
      "holidays": 6205,
      "includes": 6206,
      "slowly": 6207,
      "drums": 6208,
      "resolution": 6209,
      "challeng": 6210,
      "digital": 6211,
      "declare": 6212,
      "material": 6213,
      "victory": 6214,
      "odds": 6215,
      "displeasure": 6216,
      "flaminius": 6217,
      "hereafter": 6218,
      "'?": 6219,
      "17": 6220,
      "bay": 6221,
      "bent": 6222,
      "dump": 6223,
      "james": 6224,
      "jones": 6225,
      "nails": 6226,
      "pig": 6227,
      "##uary": 6228,
      "##nat": 6229,
      "##bility": 6230,
      "##father": 6231,
      "haw": 6232,
      "web": 6233,
      "rear": 6234,
      "rebel": 6235,
      "stub": 6236,
      "##ads": 6237,
      "chances": 6238,
      "##riger": 6239,
      "##oln": 6240,
      "leap": 6241,
      "##ulation": 6242,
      "tru": 6243,
      "##pping": 6244,
      "whenever": 6245,
      "joe": 6246,
      "fem": 6247,
      "perm": 6248,
      "hobby": 6249,
      "newly": 6250,
      "##ability": 6251,
      "partly": 6252,
      "handker": 6253,
      "parcel": 6254,
      "cares": 6255,
      "carried": 6256,
      "accur": 6257,
      "showed": 6258,
      "remains": 6259,
      "remove": 6260,
      "brace": 6261,
      "consul": 6262,
      "opened": 6263,
      "personally": 6264,
      "prompt": 6265,
      "enjoying": 6266,
      "countrymen": 6267,
      "instance": 6268,
      "offered": 6269,
      "realize": 6270,
      "perfectly": 6271,
      "##thern": 6272,
      "hencefor": 6273,
      "exams": 6274,
      "refriger": 6275,
      "purposes": 6276,
      "devils": 6277,
      "milan": 6278,
      "##grim": 6279,
      "laughing": 6280,
      "companion": 6281,
      "boarding": 6282,
      "disgrace": 6283,
      "departure": 6284,
      "meantime": 6285,
      "acquainted": 6286,
      "stamp": 6287,
      "pilgrim": 6288,
      "haply": 6289,
      "candid": 6290,
      "picnic": 6291,
      "habits": 6292,
      "lawyer": 6293,
      "unknown": 6294,
      "cinema": 6295,
      "eglamour": 6296,
      "september": 6297,
      "dil": 6298,
      "dors": 6299,
      "fate": 6300,
      "june": 6301,
      "lis": 6302,
      "las": 6303,
      "lung": 6304,
      "ming": 6305,
      "named": 6306,
      "roof": 6307,
      "rotten": 6308,
      "tay": 6309,
      "tab": 6310,
      "yond": 6311,
      "##iard": 6312,
      "##ique": 6313,
      "##now": 6314,
      "threw": 6315,
      "theat": 6316,
      "##essel": 6317,
      "##lla": 6318,
      "inch": 6319,
      "income": 6320,
      "isle": 6321,
      "praised": 6322,
      "assem": 6323,
      "chen": 6324,
      "chide": 6325,
      "choices": 6326,
      "fro": 6327,
      "abhor": 6328,
      "##asty": 6329,
      "##inda": 6330,
      "log": 6331,
      "alco": 6332,
      "sheet": 6333,
      "unh": 6334,
      "plate": 6335,
      "plants": 6336,
      "proved": 6337,
      "agent": 6338,
      "spa": 6339,
      "hobb": 6340,
      "coke": 6341,
      "mob": 6342,
      "cheque": 6343,
      "mistakes": 6344,
      "ident": 6345,
      "fairest": 6346,
      "highest": 6347,
      "passes": 6348,
      "eaten": 6349,
      "##icted": 6350,
      "pandar": 6351,
      "reception": 6352,
      "stopped": 6353,
      "wishes": 6354,
      "thousands": 6355,
      "incred": 6356,
      "requires": 6357,
      "wallet": 6358,
      "dressing": 6359,
      "kisses": 6360,
      "privile": 6361,
      "suspic": 6362,
      "woes": 6363,
      "ambitious": 6364,
      "belly": 6365,
      "martius": 6366,
      "conceit": 6367,
      "transportation": 6368,
      "bounty": 6369,
      "pipe": 6370,
      "dorset": 6371,
      "alcohol": 6372,
      "baker": 6373,
      "fry": 6374,
      "lan": 6375,
      "nin": 6376,
      "rt": 6377,
      "wer": 6378,
      "##mate": 6379,
      "##car": 6380,
      "##nel": 6381,
      "##ec": 6382,
      "##eels": 6383,
      "##inous": 6384,
      "theater": 6385,
      "##att": 6386,
      "##reus": 6387,
      "whip": 6388,
      "##asy": 6389,
      "##uted": 6390,
      "meas": 6391,
      "##illing": 6392,
      "##adem": 6393,
      "lif": 6394,
      "##verage": 6395,
      "enforce": 6396,
      "lease": 6397,
      "league": 6398,
      "quint": 6399,
      "ung": 6400,
      "bridge": 6401,
      "mango": 6402,
      "manuf": 6403,
      "placed": 6404,
      "thyreus": 6405,
      "greg": 6406,
      "##epend": 6407,
      "switch": 6408,
      "serp": 6409,
      "phr": 6410,
      "cris": 6411,
      "meetings": 6412,
      "heartily": 6413,
      "graces": 6414,
      "error": 6415,
      "messages": 6416,
      "independ": 6417,
      "armed": 6418,
      "wales": 6419,
      "##ivid": 6420,
      "silent": 6421,
      "##retion": 6422,
      "fallen": 6423,
      "musician": 6424,
      "answers": 6425,
      "prodig": 6426,
      "teaching": 6427,
      "summ": 6428,
      "strikes": 6429,
      "sixth": 6430,
      "legal": 6431,
      "labor": 6432,
      "copies": 6433,
      "francisco": 6434,
      "120": 6435,
      "personality": 6436,
      "dares": 6437,
      "amongst": 6438,
      "banishment": 6439,
      "delicate": 6440,
      "apparel": 6441,
      "normal": 6442,
      "culture": 6443,
      "weapons": 6444,
      "repeat": 6445,
      "neighborhood": 6446,
      "energy": 6447,
      "typical": 6448,
      "overdone": 6449,
      "sacrif": 6450,
      "cindy": 6451,
      "taylor": 6452,
      "hobbies": 6453,
      "weren": 6454,
      "manufact": 6455,
      "cats": 6456,
      "dagger": 6457,
      "fu": 6458,
      "gap": 6459,
      "nick": 6460,
      "por": 6461,
      "pul": 6462,
      "patch": 6463,
      "pier": 6464,
      "padu": 6465,
      "sway": 6466,
      "tame": 6467,
      "tide": 6468,
      "vessel": 6469,
      "##hors": 6470,
      "##iving": 6471,
      "##bre": 6472,
      "##ereto": 6473,
      "wheel": 6474,
      "sher": 6475,
      "rej": 6476,
      "liking": 6477,
      "##amp": 6478,
      "sele": 6479,
      "seest": 6480,
      "chast": 6481,
      "##cture": 6482,
      "##antages": 6483,
      "loans": 6484,
      "##ortion": 6485,
      "flav": 6486,
      "perish": 6487,
      "permit": 6488,
      "boots": 6489,
      "coin": 6490,
      "scen": 6491,
      "scot": 6492,
      "##quenet": 6493,
      "partner": 6494,
      "seconds": 6495,
      "##ogue": 6496,
      "commod": 6497,
      "presents": 6498,
      "thirst": 6499,
      "fares": 6500,
      "related": 6501,
      "additional": 6502,
      "faithful": 6503,
      "strain": 6504,
      "hangs": 6505,
      "barn": 6506,
      "fitness": 6507,
      "frenchman": 6508,
      "sisters": 6509,
      "required": 6510,
      "spending": 6511,
      "draws": 6512,
      "aware": 6513,
      "jaquenet": 6514,
      "restaurants": 6515,
      "progress": 6516,
      "revenged": 6517,
      "admin": 6518,
      "babe": 6519,
      "darkness": 6520,
      "applying": 6521,
      "washed": 6522,
      "necessity": 6523,
      "previous": 6524,
      "relaxing": 6525,
      "furnish": 6526,
      "impressive": 6527,
      "advertising": 6528,
      "unfold": 6529,
      "compliment": 6530,
      "sensible": 6531,
      "retirement": 6532,
      "ignorance": 6533,
      "revolt": 6534,
      "champagne": 6535,
      "inquire": 6536,
      "extremely": 6537,
      "mourn": 6538,
      "sarah": 6539,
      "battery": 6540,
      "zhang": 6541,
      "tornado": 6542,
      "august": 6543,
      "equipment": 6544,
      "ocean": 6545,
      "reckon": 6546,
      "diamond": 6547,
      "elevator": 6548,
      "refrigerator": 6549,
      "padua": 6550,
      "jaquenetta": 6551,
      "cough": 6552,
      "eve": 6553,
      "eag": 6554,
      "ire": 6555,
      "jason": 6556,
      "ly": 6557,
      "linc": 6558,
      "linda": 6559,
      "pork": 6560,
      "row": 6561,
      "ya": 6562,
      "##nal": 6563,
      "##aid": 6564,
      "##lar": 6565,
      "##purn": 6566,
      "##zh": 6567,
      "##isc": 6568,
      "##chan": 6569,
      "##oops": 6570,
      "##stick": 6571,
      "soda": 6572,
      "areas": 6573,
      "chin": 6574,
      "chase": 6575,
      "##estic": 6576,
      "nobles": 6577,
      "nobility": 6578,
      "deer": 6579,
      "deck": 6580,
      "quot": 6581,
      "lets": 6582,
      "unit": 6583,
      "faul": 6584,
      "aged": 6585,
      "spots": 6586,
      "perforce": 6587,
      "compar": 6588,
      "sau": 6589,
      "scale": 6590,
      "prey": 6591,
      "##aved": 6592,
      "wrote": 6593,
      "##ensive": 6594,
      "focus": 6595,
      "max": 6596,
      "carr": 6597,
      "crush": 6598,
      "accus": 6599,
      "accuse": 6600,
      "removed": 6601,
      "fairies": 6602,
      "thrown": 6603,
      "setting": 6604,
      "bringing": 6605,
      "recon": 6606,
      "expl": 6607,
      "horror": 6608,
      "farm": 6609,
      "##ibilities": 6610,
      "confused": 6611,
      "singer": 6612,
      "accountant": 6613,
      "offering": 6614,
      "calpurn": 6615,
      "honestly": 6616,
      "function": 6617,
      "reduce": 6618,
      "pomp": 6619,
      "visited": 6620,
      "transl": 6621,
      "coup": 6622,
      "chancellor": 6623,
      "fishing": 6624,
      "seller": 6625,
      "detect": 6626,
      "teams": 6627,
      "solve": 6628,
      "warranty": 6629,
      "mouths": 6630,
      "method": 6631,
      "embass": 6632,
      "occup": 6633,
      "failed": 6634,
      "audrey": 6635,
      "griev": 6636,
      "digest": 6637,
      "jealousy": 6638,
      "smiling": 6639,
      "pollution": 6640,
      "religious": 6641,
      "waters": 6642,
      "unworthy": 6643,
      "##natural": 6644,
      "handkerchief": 6645,
      "lincoln": 6646,
      "calpurnia": 6647,
      "32": 6648,
      "ack": 6649,
      "bun": 6650,
      "bunch": 6651,
      "cu": 6652,
      "cott": 6653,
      "dow": 6654,
      "hars": 6655,
      "lt": 6656,
      "mam": 6657,
      "ross": 6658,
      "sally": 6659,
      "tig": 6660,
      "ug": 6661,
      "zoo": 6662,
      "##sman": 6663,
      "##kins": 6664,
      "##do": 6665,
      "##oot": 6666,
      "anc": 6667,
      "##omin": 6668,
      "whores": 6669,
      "init": 6670,
      "weeds": 6671,
      "forfeit": 6672,
      "##che": 6673,
      "##chor": 6674,
      "##seeing": 6675,
      "butt": 6676,
      "sevent": 6677,
      "chose": 6678,
      "abc": 6679,
      "herc": 6680,
      "los": 6681,
      "unnatural": 6682,
      "##ostrate": 6683,
      "##istry": 6684,
      "##ements": 6685,
      "sayest": 6686,
      "spect": 6687,
      "worksh": 6688,
      "saving": 6689,
      "buff": 6690,
      "bucks": 6691,
      "##phis": 6692,
      "peers": 6693,
      "##izer": 6694,
      "afterwards": 6695,
      "##avish": 6696,
      "pause": 6697,
      "apples": 6698,
      "honor": 6699,
      "resign": 6700,
      "owners": 6701,
      "settle": 6702,
      "prayer": 6703,
      "sending": 6704,
      "survive": 6705,
      "replace": 6706,
      "types": 6707,
      "favours": 6708,
      "discont": 6709,
      "esca": 6710,
      "##azar": 6711,
      "walks": 6712,
      "burth": 6713,
      "propos": 6714,
      "cressid": 6715,
      "hateful": 6716,
      "strive": 6717,
      "leading": 6718,
      "considering": 6719,
      "tests": 6720,
      "particip": 6721,
      "relaxed": 6722,
      "ridic": 6723,
      "furnished": 6724,
      "undo": 6725,
      "british": 6726,
      "wounded": 6727,
      "slaves": 6728,
      "washington": 6729,
      "etc": 6730,
      "traveller": 6731,
      "persuade": 6732,
      "macm": 6733,
      "circumstance": 6734,
      "accompl": 6735,
      "shrewd": 6736,
      "disguised": 6737,
      "conversation": 6738,
      "cabin": 6739,
      "gorg": 6740,
      "commercial": 6741,
      "henceforth": 6742,
      "mobile": 6743,
      "quintus": 6744,
      "average": 6745,
      "bars": 6746,
      "esp": 6747,
      "ken": 6748,
      "ruled": 6749,
      "##ubs": 6750,
      "##tles": 6751,
      "##cra": 6752,
      "##leness": 6753,
      "##oft": 6754,
      "##oking": 6755,
      "##oked": 6756,
      "##bol": 6757,
      "##vet": 6758,
      "thal": 6759,
      "##esy": 6760,
      "##itate": 6761,
      "fors": 6762,
      "forces": 6763,
      "mechan": 6764,
      "##sequ": 6765,
      "##imp": 6766,
      "soil": 6767,
      "asham": 6768,
      "neat": 6769,
      "chess": 6770,
      "chos": 6771,
      "sup": 6772,
      "nobly": 6773,
      "orch": 6774,
      "hereford": 6775,
      "narrow": 6776,
      "##oster": 6777,
      "trunk": 6778,
      "unus": 6779,
      "unse": 6780,
      "arise": 6781,
      "theme": 6782,
      "lap": 6783,
      "caphis": 6784,
      "spit": 6785,
      "twain": 6786,
      "glove": 6787,
      "series": 6788,
      "scape": 6789,
      "##ittance": 6790,
      "##anged": 6791,
      "belike": 6792,
      "breach": 6793,
      "resist": 6794,
      "crime": 6795,
      "keeper": 6796,
      "ideal": 6797,
      "minor": 6798,
      "##cycle": 6799,
      "passage": 6800,
      "welsh": 6801,
      "exped": 6802,
      "supplies": 6803,
      "pleasures": 6804,
      "angels": 6805,
      "advanced": 6806,
      "sunny": 6807,
      "invitation": 6808,
      "evidence": 6809,
      "teachers": 6810,
      "walked": 6811,
      "create": 6812,
      "filled": 6813,
      "expert": 6814,
      "transform": 6815,
      "fitz": 6816,
      "disturb": 6817,
      "weekends": 6818,
      "filth": 6819,
      "traveler": 6820,
      "sightseeing": 6821,
      "memor": 6822,
      "annivers": 6823,
      "commanded": 6824,
      "styles": 6825,
      "ships": 6826,
      "fatal": 6827,
      "safely": 6828,
      "catal": 6829,
      "responsibility": 6830,
      "millions": 6831,
      "investment": 6832,
      "resolve": 6833,
      "venture": 6834,
      "grieve": 6835,
      "balthazar": 6836,
      "requirements": 6837,
      "connection": 6838,
      "travelling": 6839,
      "merely": 6840,
      "stamps": 6841,
      "rebell": 6842,
      "##ienced": 6843,
      "advertisement": 6844,
      "sanct": 6845,
      "literature": 6846,
      "shapes": 6847,
      "emergency": 6848,
      "stubborn": 6849,
      "acknow": 6850,
      "hercules": 6851,
      "ridiculous": 6852,
      "gorgeous": 6853,
      "thaliard": 6854,
      "ashamed": 6855,
      "chosen": 6856,
      "26": 6857,
      "400": 6858,
      "aven": 6859,
      "dir": 6860,
      "fitting": 6861,
      "kin": 6862,
      "pcc": 6863,
      "patter": 6864,
      "pages": 6865,
      "piano": 6866,
      "race": 6867,
      "yep": 6868,
      "##mother": 6869,
      "##ua": 6870,
      "##gers": 6871,
      "##some": 6872,
      "##dess": 6873,
      "##boy": 6874,
      "##anny": 6875,
      "token": 6876,
      "anal": 6877,
      "##otion": 6878,
      "insp": 6879,
      "hack": 6880,
      "##ici": 6881,
      "##ales": 6882,
      "stoop": 6883,
      "stole": 6884,
      "prais": 6885,
      "liu": 6886,
      "butcher": 6887,
      "asp": 6888,
      "##iles": 6889,
      "knit": 6890,
      "knot": 6891,
      "abuse": 6892,
      "amiss": 6893,
      "conceive": 6894,
      "##akers": 6895,
      "sheets": 6896,
      "units": 6897,
      "##iege": 6898,
      "joking": 6899,
      "##ously": 6900,
      "fries": 6901,
      "scient": 6902,
      "disci": 6903,
      "prem": 6904,
      "pred": 6905,
      "##itty": 6906,
      "handed": 6907,
      "leonine": 6908,
      "goddess": 6909,
      "johnson": 6910,
      "contain": 6911,
      "minded": 6912,
      "explo": 6913,
      "cambridge": 6914,
      "badly": 6915,
      "pursue": 6916,
      "region": 6917,
      "followed": 6918,
      "substance": 6919,
      "drives": 6920,
      "nearest": 6921,
      "fourteen": 6922,
      "defence": 6923,
      "courtier": 6924,
      "burst": 6925,
      "banks": 6926,
      "experienced": 6927,
      "picked": 6928,
      "growth": 6929,
      "bagot": 6930,
      "kissing": 6931,
      "verges": 6932,
      "commonwe": 6933,
      "appointed": 6934,
      "detest": 6935,
      "urge": 6936,
      "varro": 6937,
      "magic": 6938,
      "smells": 6939,
      "beasts": 6940,
      "observ": 6941,
      "observe": 6942,
      "closet": 6943,
      "injur": 6944,
      "acquaintance": 6945,
      "jeans": 6946,
      "conclude": 6947,
      "cigarettes": 6948,
      "shelf": 6949,
      "liquor": 6950,
      "original": 6951,
      "disappointed": 6952,
      "conclusion": 6953,
      "ancest": 6954,
      "anniversary": 6955,
      "cd": 6956,
      "cos": 6957,
      "dun": 6958,
      "goose": 6959,
      "hook": 6960,
      "nic": 6961,
      "om": 6962,
      "pam": 6963,
      "site": 6964,
      "taint": 6965,
      "voy": 6966,
      "wore": 6967,
      "yard": 6968,
      "##vity": 6969,
      "##pa": 6970,
      "##pronius": 6971,
      "##itter": 6972,
      "inn": 6973,
      "##icing": 6974,
      "shun": 6975,
      "shield": 6976,
      "shipping": 6977,
      "##iments": 6978,
      "canidius": 6979,
      "golf": 6980,
      "noisy": 6981,
      "deaf": 6982,
      "##outs": 6983,
      "marullus": 6984,
      "unm": 6985,
      "caused": 6986,
      "spy": 6987,
      "sple": 6988,
      "whoa": 6989,
      "duck": 6990,
      "roar": 6991,
      "safer": 6992,
      "moons": 6993,
      "hired": 6994,
      "pregn": 6995,
      "pole": 6996,
      "interrupt": 6997,
      "wrink": 6998,
      "wrought": 6999,
      "hambur": 7000,
      "parent": 7001,
      "gram": 7002,
      "servilius": 7003,
      "careless": 7004,
      "charming": 7005,
      "actions": 7006,
      "petty": 7007,
      "waist": 7008,
      "individ": 7009,
      "begun": 7010,
      "capable": 7011,
      "##ivity": 7012,
      "steep": 7013,
      "repres": 7014,
      "beats": 7015,
      "subtle": 7016,
      "calf": 7017,
      "disco": 7018,
      "discretion": 7019,
      "insist": 7020,
      "drew": 7021,
      "fighting": 7022,
      ",'--": 7023,
      "drawing": 7024,
      "interviewer": 7025,
      "oppress": 7026,
      "casual": 7027,
      "customs": 7028,
      "divided": 7029,
      "considered": 7030,
      "consideration": 7031,
      "ladder": 7032,
      "raining": 7033,
      "reservations": 7034,
      "mainly": 7035,
      "supervis": 7036,
      "approved": 7037,
      "governor": 7038,
      "affections": 7039,
      "##verted": 7040,
      "moral": 7041,
      "sempronius": 7042,
      "willingly": 7043,
      "trading": 7044,
      "envious": 7045,
      "sampson": 7046,
      "electronic": 7047,
      "groans": 7048,
      "route": 7049,
      "december": 7050,
      "branches": 7051,
      "goths": 7052,
      "curtis": 7053,
      "tremble": 7054,
      "determine": 7055,
      "ingred": 7056,
      "dignity": 7057,
      "imprison": 7058,
      "incredible": 7059,
      "privilege": 7060,
      "sheriff": 7061,
      "##zhou": 7062,
      "harsh": 7063,
      "ugly": 7064,
      "pattern": 7065,
      "23": 7066,
      "55": 7067,
      "ale": 7068,
      "bore": 7069,
      "eth": 7070,
      "fired": 7071,
      "flex": 7072,
      "harb": 7073,
      "mm": 7074,
      "nun": 7075,
      "pars": 7076,
      "rust": 7077,
      "rous": 7078,
      "scept": 7079,
      "tag": 7080,
      "tub": 7081,
      "tables": 7082,
      "vul": 7083,
      "vantage": 7084,
      "wire": 7085,
      "yog": 7086,
      "zina": 7087,
      "##mail": 7088,
      "##lings": 7089,
      "##pass": 7090,
      "##ena": 7091,
      "tool": 7092,
      "toys": 7093,
      "##itute": 7094,
      "##ushing": 7095,
      "##omenes": 7096,
      "##alty": 7097,
      "sting": 7098,
      "stairs": 7099,
      "sequ": 7100,
      "choo": 7101,
      "chips": 7102,
      "##ardine": 7103,
      "##order": 7104,
      "##elly": 7105,
      "seeking": 7106,
      "clubs": 7107,
      "quench": 7108,
      "##elaus": 7109,
      "##arts": 7110,
      "unb": 7111,
      "##agers": 7112,
      "spark": 7113,
      "bloss": 7114,
      "worker": 7115,
      "flute": 7116,
      "coach": 7117,
      "##rows": 7118,
      "lux": 7119,
      "pee": 7120,
      "moist": 7121,
      "dislike": 7122,
      "gotta": 7123,
      "gently": 7124,
      "pawn": 7125,
      "cheques": 7126,
      "cleomenes": 7127,
      "critic": 7128,
      "coron": 7129,
      "commons": 7130,
      "slack": 7131,
      "fairer": 7132,
      "depressed": 7133,
      "talks": 7134,
      "sought": 7135,
      "recre": 7136,
      "wipe": 7137,
      "checks": 7138,
      "slew": 7139,
      "doub": 7140,
      "beating": 7141,
      "possibly": 7142,
      "inte": 7143,
      "funeral": 7144,
      "stream": 7145,
      "violence": 7146,
      "bottles": 7147,
      "domestic": 7148,
      "villan": 7149,
      "village": 7150,
      "barren": 7151,
      "seaf": 7152,
      "strongly": 7153,
      "entre": 7154,
      "hundreds": 7155,
      "division": 7156,
      "obv": 7157,
      "garage": 7158,
      "practical": 7159,
      "tourist": 7160,
      "satisfy": 7161,
      "designs": 7162,
      "ceres": 7163,
      "imagination": 7164,
      "granted": 7165,
      "opera": 7166,
      "slipp": 7167,
      "properly": 7168,
      "cockt": 7169,
      "liberal": 7170,
      "blocks": 7171,
      "torch": 7172,
      "obedient": 7173,
      "dismiss": 7174,
      "olympic": 7175,
      "communication": 7176,
      "scholars": 7177,
      "renowned": 7178,
      "dragon": 7179,
      "conspirator": 7180,
      "wondrous": 7181,
      "influ": 7182,
      "establish": 7183,
      "trojan": 7184,
      "wholesome": 7185,
      "cooperation": 7186,
      "eternal": 7187,
      "barnardine": 7188,
      "unusual": 7189,
      "fitzwater": 7190,
      "22": 7191,
      "bone": 7192,
      "bicy": 7193,
      "dining": 7194,
      "kore": 7195,
      "les": 7196,
      "od": 7197,
      "options": 7198,
      "pink": 7199,
      "pind": 7200,
      "pate": 7201,
      "punch": 7202,
      "psy": 7203,
      "rates": 7204,
      "sins": 7205,
      "stern": 7206,
      "tun": 7207,
      "tum": 7208,
      "tone": 7209,
      "tip": 7210,
      "##uits": 7211,
      "##tim": 7212,
      "##hem": 7213,
      "##roof": 7214,
      "##iences": 7215,
      "##ease": 7216,
      "##ault": 7217,
      "##wing": 7218,
      "##zing": 7219,
      "##erio": 7220,
      "##orse": 7221,
      "##arr": 7222,
      "##itical": 7223,
      "heal": 7224,
      "##stood": 7225,
      "##idents": 7226,
      "##raced": 7227,
      "##iling": 7228,
      "ate": 7229,
      "grecian": 7230,
      "features": 7231,
      "scur": 7232,
      "dissem": 7233,
      "disease": 7234,
      "menelaus": 7235,
      "sweep": 7236,
      "hearted": 7237,
      "contents": 7238,
      "salerio": 7239,
      "warri": 7240,
      "sounded": 7241,
      "merc": 7242,
      "symp": 7243,
      "recom": 7244,
      "headed": 7245,
      "##ashed": 7246,
      "persons": 7247,
      "regret": 7248,
      "terror": 7249,
      "##seless": 7250,
      "confusion": 7251,
      "touching": 7252,
      "subd": 7253,
      "planet": 7254,
      "returned": 7255,
      "suitcase": 7256,
      "created": 7257,
      "philostrate": 7258,
      "earthly": 7259,
      "gait": 7260,
      "proportion": 7261,
      "tempor": 7262,
      "damaged": 7263,
      "troubles": 7264,
      "appeal": 7265,
      "falsehood": 7266,
      "universities": 7267,
      "towns": 7268,
      "jacket": 7269,
      "catching": 7270,
      "grandfather": 7271,
      "anna": 7272,
      "jewels": 7273,
      "wisely": 7274,
      "carrying": 7275,
      "daddy": 7276,
      "particularly": 7277,
      "scheduled": 7278,
      "savage": 7279,
      "physical": 7280,
      "organiz": 7281,
      "cameras": 7282,
      "network": 7283,
      "senses": 7284,
      "technical": 7285,
      "climbing": 7286,
      "conclud": 7287,
      "cherish": 7288,
      "encourage": 7289,
      "sleeve": 7290,
      "vehicle": 7291,
      "gossip": 7292,
      "mystery": 7293,
      "ireland": 7294,
      "dirty": 7295,
      "voyage": 7296,
      "seafood": 7297,
      "pindarus": 7298,
      "psych": 7299,
      "aed": 7300,
      "award": 7301,
      "bul": 7302,
      "cim": 7303,
      "dent": 7304,
      "ec": 7305,
      "hatch": 7306,
      "hated": 7307,
      "mp": 7308,
      "mard": 7309,
      "mud": 7310,
      "mouse": 7311,
      "nim": 7312,
      "ora": 7313,
      "obt": 7314,
      "pow": 7315,
      "rip": 7316,
      "sine": 7317,
      "##uish": 7318,
      "##eld": 7319,
      "##ece": 7320,
      "##actor": 7321,
      "##inent": 7322,
      "##inum": 7323,
      "##arian": 7324,
      "whipped": 7325,
      "wept": 7326,
      "shri": 7327,
      "shade": 7328,
      "revel": 7329,
      "stere": 7330,
      "##amin": 7331,
      "chic": 7332,
      "suite": 7333,
      "frust": 7334,
      "##ounced": 7335,
      "abhors": 7336,
      "##ellus": 7337,
      "amend": 7338,
      "##venir": 7339,
      "proced": 7340,
      "moreover": 7341,
      "spurn": 7342,
      "bohem": 7343,
      "theirs": 7344,
      "desired": 7345,
      "parting": 7346,
      "grades": 7347,
      "monarch": 7348,
      "##xton": 7349,
      "applied": 7350,
      "kindred": 7351,
      "strump": 7352,
      "happily": 7353,
      "##soever": 7354,
      "politic": 7355,
      "sufficient": 7356,
      "sym": 7357,
      "souvenir": 7358,
      "##shine": 7359,
      "##iforn": 7360,
      "terr": 7361,
      "finance": 7362,
      "sung": 7363,
      "##ancing": 7364,
      "beheld": 7365,
      "academ": 7366,
      "invent": 7367,
      "californ": 7368,
      "demonst": 7369,
      "metellus": 7370,
      "bidding": 7371,
      "informed": 7372,
      "generation": 7373,
      "landed": 7374,
      "strife": 7375,
      "efficient": 7376,
      "packed": 7377,
      "leaf": 7378,
      "##conbridge": 7379,
      "antique": 7380,
      "miracle": 7381,
      "divide": 7382,
      "dutch": 7383,
      "grandam": 7384,
      "grandmother": 7385,
      "urged": 7386,
      "approve": 7387,
      "guarded": 7388,
      "bravely": 7389,
      "scarf": 7390,
      "histor": 7391,
      "operation": 7392,
      "bonds": 7393,
      "obsc": 7394,
      "lusty": 7395,
      "possession": 7396,
      "injury": 7397,
      "combat": 7398,
      "housing": 7399,
      "corporate": 7400,
      "conceal": 7401,
      "divorced": 7402,
      "innoc": 7403,
      "normally": 7404,
      "religion": 7405,
      "statue": 7406,
      "channels": 7407,
      "usurp": 7408,
      "gambling": 7409,
      "olympics": 7410,
      "juno": 7411,
      "descend": 7412,
      "loyalty": 7413,
      "issues": 7414,
      "torture": 7415,
      "cloak": 7416,
      "rhyme": 7417,
      "potatoes": 7418,
      "volunte": 7419,
      "lisa": 7420,
      "lungs": 7421,
      "suspicion": 7422,
      "gregory": 7423,
      "commodity": 7424,
      "saucy": 7425,
      "burthen": 7426,
      "spleen": 7427,
      "pregnant": 7428,
      "ingredients": 7429,
      "peevish": 7430,
      "sympath": 7431,
      "mardian": 7432,
      "obtain": 7433,
      "70": 7434,
      "ax": 7435,
      "afe": 7436,
      "bost": 7437,
      "beth": 7438,
      "bang": 7439,
      "cath": 7440,
      "dine": 7441,
      "dian": 7442,
      "dating": 7443,
      "gen": 7444,
      "garb": 7445,
      "hates": 7446,
      "july": 7447,
      "junk": 7448,
      "lun": 7449,
      "lark": 7450,
      "maker": 7451,
      "nons": 7452,
      "pants": 7453,
      "pills": 7454,
      "siege": 7455,
      "tack": 7456,
      "wils": 7457,
      "yoke": 7458,
      "##can": 7459,
      "##how": 7460,
      "##rust": 7461,
      "##resh": 7462,
      "##iot": 7463,
      "##bus": 7464,
      "##vard": 7465,
      "##pense": 7466,
      "thorn": 7467,
      "##ares": 7468,
      "##inger": 7469,
      "##isible": 7470,
      "##eters": 7471,
      "shines": 7472,
      "##urs": 7473,
      "##illed": 7474,
      "strat": 7475,
      "stiff": 7476,
      "liver": 7477,
      "thisby": 7478,
      "##aming": 7479,
      "cancell": 7480,
      "goals": 7481,
      "chap": 7482,
      "##rain": 7483,
      "##anta": 7484,
      "enth": 7485,
      "likewise": 7486,
      "froth": 7487,
      "##osh": 7488,
      "aloud": 7489,
      "brick": 7490,
      "outf": 7491,
      "feature": 7492,
      "laughter": 7493,
      "##emper": 7494,
      "hadn": 7495,
      "adult": 7496,
      "##iances": 7497,
      "coats": 7498,
      "scri": 7499,
      "scatter": 7500,
      "moves": 7501,
      "talent": 7502,
      "corse": 7503,
      "remorse": 7504,
      "grab": 7505,
      "graves": 7506,
      "tomato": 7507,
      "##forced": 7508,
      "apoll": 7509,
      "indian": 7510,
      "farther": 7511,
      "##gged": 7512,
      "##acles": 7513,
      "visage": 7514,
      "fortunately": 7515,
      "sunshine": 7516,
      "subst": 7517,
      "humours": 7518,
      "tyre": 7519,
      "typing": 7520,
      "lists": 7521,
      "calend": 7522,
      "husbands": 7523,
      "extension": 7524,
      "kills": 7525,
      "shops": 7526,
      "barbe": 7527,
      "powerful": 7528,
      "troubled": 7529,
      "awesome": 7530,
      "leader": 7531,
      "##prus": 7532,
      "apartments": 7533,
      "cleaned": 7534,
      "romantic": 7535,
      "duties": 7536,
      "garland": 7537,
      "weeps": 7538,
      "fashionable": 7539,
      "secrets": 7540,
      "sorts": 7541,
      "neighbors": 7542,
      "neighbours": 7543,
      "melt": 7544,
      "balls": 7545,
      "beholding": 7546,
      "exception": 7547,
      "hung": 7548,
      "strengths": 7549,
      "graduation": 7550,
      "##cox": 7551,
      "destruction": 7552,
      "collection": 7553,
      "necklace": 7554,
      "umbre": 7555,
      "newspapers": 7556,
      "competition": 7557,
      "simpcox": 7558,
      "aemilius": 7559,
      "tyranny": 7560,
      "torment": 7561,
      "technology": 7562,
      "routine": 7563,
      "cyprus": 7564,
      "arrested": 7565,
      "immort": 7566,
      "motorcycle": 7567,
      "punishment": 7568,
      "intelligence": 7569,
      "folks": 7570,
      "pearl": 7571,
      "naughty": 7572,
      "adventure": 7573,
      "censure": 7574,
      "challenging": 7575,
      "theatre": 7576,
      "serpent": 7577,
      "eagle": 7578,
      "embassy": 7579,
      "avenue": 7580,
      "cimber": 7581,
      "strumpet": 7582,
      "boston": 7583,
      "wilson": 7584,
      "36": 7585,
      "bum": 7586,
      "bail": 7587,
      "cakes": 7588,
      "dates": 7589,
      "fert": 7590,
      "fred": 7591,
      "fret": 7592,
      "hills": 7593,
      "nu": 7594,
      "nan": 7595,
      "nav": 7596,
      "ping": 7597,
      "pir": 7598,
      "rot": 7599,
      "rick": 7600,
      "rings": 7601,
      "rab": 7602,
      "rais": 7603,
      "raw": 7604,
      "rising": 7605,
      "sich": 7606,
      "vous": 7607,
      "##cute": 7608,
      "##hrew": 7609,
      "##rict": 7610,
      "##voc": 7611,
      "##wife": 7612,
      "thread": 7613,
      "##arily": 7614,
      "hears": 7615,
      "##keep": 7616,
      "##illius": 7617,
      "##adle": 7618,
      "seed": 7619,
      "seize": 7620,
      "candy": 7621,
      "nod": 7622,
      "thereof": 7623,
      "##unken": 7624,
      "##rating": 7625,
      "abide": 7626,
      "comest": 7627,
      "unre": 7628,
      "brid": 7629,
      "##iev": 7630,
      "outdo": 7631,
      "thankful": 7632,
      "##aging": 7633,
      "feather": 7634,
      "wanting": 7635,
      "glob": 7636,
      "compens": 7637,
      "advers": 7638,
      "adjust": 7639,
      "betty": 7640,
      "scour": 7641,
      "divers": 7642,
      "drunken": 7643,
      "disag": 7644,
      "##quis": 7645,
      "belt": 7646,
      "markets": 7647,
      "grade": 7648,
      "rescue": 7649,
      "male": 7650,
      "carries": 7651,
      "crim": 7652,
      "crest": 7653,
      "happier": 7654,
      "contem": 7655,
      "accused": 7656,
      "warming": 7657,
      "owner": 7658,
      "peto": 7659,
      "hopefully": 7660,
      "valu": 7661,
      "interests": 7662,
      "curst": 7663,
      "curses": 7664,
      "tape": 7665,
      "confir": 7666,
      "beauteous": 7667,
      "beshrew": 7668,
      "drift": 7669,
      "invisible": 7670,
      "basset": 7671,
      "voltim": 7672,
      "exton": 7673,
      "strew": 7674,
      "lessons": 7675,
      "harvard": 7676,
      "earthqu": 7677,
      "severally": 7678,
      "hairs": 7679,
      "probation": 7680,
      "paperwork": 7681,
      "hotels": 7682,
      "opposed": 7683,
      "grate": 7684,
      "topic": 7685,
      "bored": 7686,
      "lowest": 7687,
      "joyful": 7688,
      "starving": 7689,
      "##ifications": 7690,
      "throws": 7691,
      "magn": 7692,
      "wooden": 7693,
      "sembl": 7694,
      "happening": 7695,
      "instruments": 7696,
      "conditioning": 7697,
      "responsibilities": 7698,
      "mentioned": 7699,
      "families": 7700,
      "extremity": 7701,
      "regularly": 7702,
      "apparent": 7703,
      "pitiful": 7704,
      "breeding": 7705,
      "windsor": 7706,
      "community": 7707,
      "fleet": 7708,
      "hunting": 7709,
      "naples": 7710,
      "weapon": 7711,
      "mixed": 7712,
      "cigarette": 7713,
      "scholar": 7714,
      "appliances": 7715,
      "potential": 7716,
      "bourbon": 7717,
      "inherit": 7718,
      "karen": 7719,
      "platform": 7720,
      "mangoes": 7721,
      "phrase": 7722,
      "crisp": 7723,
      "scenery": 7724,
      "mamillius": 7725,
      "tiger": 7726,
      "whoreson": 7727,
      "##iciency": 7728,
      "supervisor": 7729,
      "integr": 7730,
      "cocktail": 7731,
      "oracle": 7732,
      "bohemia": 7733,
      "california": 7734,
      "calendar": 7735,
      "immortal": 7736,
      "sichuan": 7737,
      "voltimand": 7738,
      "---": 7739,
      "75": 7740,
      "cel": 7741,
      "eager": 7742,
      "fount": 7743,
      "gid": 7744,
      "lou": 7745,
      "option": 7746,
      "pest": 7747,
      "pant": 7748,
      "rud": 7749,
      "##gant": 7750,
      "##apt": 7751,
      "##aign": 7752,
      "##zzy": 7753,
      "##orris": 7754,
      "##onven": 7755,
      "##arm": 7756,
      "##lly": 7757,
      "andy": 7758,
      "##using": 7759,
      "inh": 7760,
      "inse": 7761,
      "bean": 7762,
      "heel": 7763,
      "##str": 7764,
      "prim": 7765,
      "wills": 7766,
      "##ctions": 7767,
      "enr": 7768,
      "##geon": 7769,
      "lovest": 7770,
      "worms": 7771,
      "trash": 7772,
      "troop": 7773,
      "bru": 7774,
      "brush": 7775,
      "pls": 7776,
      "uses": 7777,
      "facial": 7778,
      "label": 7779,
      "twin": 7780,
      "twould": 7781,
      "compound": 7782,
      "veins": 7783,
      "couldst": 7784,
      "greatly": 7785,
      "scope": 7786,
      "peep": 7787,
      "##fty": 7788,
      "##cca": 7789,
      "parley": 7790,
      "##liest": 7791,
      "kevin": 7792,
      "clever": 7793,
      "county": 7794,
      "contest": 7795,
      "arts": 7796,
      "attack": 7797,
      "preserve": 7798,
      "ending": 7799,
      "recent": 7800,
      "braw": 7801,
      "caps": 7802,
      "##acity": 7803,
      "decent": 7804,
      "relieve": 7805,
      "relief": 7806,
      "relatives": 7807,
      "draft": 7808,
      "peaceful": 7809,
      "wolf": 7810,
      "worrying": 7811,
      "propose": 7812,
      "transaction": 7813,
      "picking": 7814,
      "inconven": 7815,
      "forever": 7816,
      "forehead": 7817,
      "employer": 7818,
      "snatch": 7819,
      "awe": 7820,
      "mirror": 7821,
      "grands": 7822,
      "revenue": 7823,
      "solid": 7824,
      "burnt": 7825,
      "##weight": 7826,
      "jewell": 7827,
      "effective": 7828,
      "foreigners": 7829,
      "throwing": 7830,
      "allowance": 7831,
      "embarr": 7832,
      "programm": 7833,
      "printer": 7834,
      "completed": 7835,
      "suffered": 7836,
      "woods": 7837,
      "cowards": 7838,
      "riding": 7839,
      "paintings": 7840,
      "circle": 7841,
      "horner": 7842,
      "photo": 7843,
      "transferred": 7844,
      "sample": 7845,
      "bedrooms": 7846,
      "martin": 7847,
      "journal": 7848,
      "throats": 7849,
      "immediate": 7850,
      "maintenance": 7851,
      "frankly": 7852,
      "instantly": 7853,
      "infection": 7854,
      "location": 7855,
      "barbar": 7856,
      "virginity": 7857,
      "conjure": 7858,
      "skirts": 7859,
      "instructions": 7860,
      "exceeding": 7861,
      "advertisements": 7862,
      "pronounce": 7863,
      "butterf": 7864,
      "errand": 7865,
      "appla": 7866,
      "drugs": 7867,
      "deduct": 7868,
      "mexico": 7869,
      "resources": 7870,
      "candidate": 7871,
      "frozen": 7872,
      "sacrifice": 7873,
      "thirsty": 7874,
      "macmorris": 7875,
      "represent": 7876,
      "sceptre": 7877,
      "chicago": 7878,
      "afeard": 7879,
      "35": 7880,
      "bri": 7881,
      "cic": 7882,
      "dame": 7883,
      "dave": 7884,
      "dote": 7885,
      "dances": 7886,
      "gild": 7887,
      "hilt": 7888,
      "il": 7889,
      "jer": 7890,
      "jet": 7891,
      "link": 7892,
      "lane": 7893,
      "pine": 7894,
      "teen": 7895,
      "vit": 7896,
      "via": 7897,
      "wool": 7898,
      "##ties": 7899,
      "##gery": 7900,
      "##ser": 7901,
      "##wood": 7902,
      "##34": 7903,
      "##iser": 7904,
      "##etas": 7905,
      "inward": 7906,
      "beware": 7907,
      "##icies": 7908,
      "forester": 7909,
      "shook": 7910,
      "shakes": 7911,
      "##ched": 7912,
      "##stor": 7913,
      "solic": 7914,
      "sexton": 7915,
      "candle": 7916,
      "cancer": 7917,
      "debit": 7918,
      "ench": 7919,
      "alleg": 7920,
      "exile": 7921,
      "##enda": 7922,
      "marvell": 7923,
      "clam": 7924,
      "##ums": 7925,
      "letting": 7926,
      "union": 7927,
      "unbel": 7928,
      "unjust": 7929,
      "manif": 7930,
      "somewh": 7931,
      "justly": 7932,
      "joys": 7933,
      "caf": 7934,
      "cafe": 7935,
      "rod": 7936,
      "needful": 7937,
      "flout": 7938,
      "flash": 7939,
      "perpet": 7940,
      "pepper": 7941,
      "##ertain": 7942,
      "longing": 7943,
      "emory": 7944,
      "evenings": 7945,
      "downstairs": 7946,
      "download": 7947,
      "cram": 7948,
      "contri": 7949,
      "accent": 7950,
      "slay": 7951,
      "policies": 7952,
      "deput": 7953,
      "throng": 7954,
      "senseless": 7955,
      "indiff": 7956,
      "begot": 7957,
      "##clam": 7958,
      "expand": 7959,
      "expense": 7960,
      "camest": 7961,
      "prosperous": 7962,
      "suppli": 7963,
      "postc": 7964,
      "fearing": 7965,
      "retreat": 7966,
      "throughout": 7967,
      "vision": 7968,
      "advantages": 7969,
      "assurance": 7970,
      "driven": 7971,
      "promises": 7972,
      "patric": 7973,
      "answered": 7974,
      "invention": 7975,
      "extend": 7976,
      "foundation": 7977,
      "lesser": 7978,
      "banking": 7979,
      "bankrupt": 7980,
      "statement": 7981,
      "qualifications": 7982,
      "dispose": 7983,
      "disposed": 7984,
      "refresh": 7985,
      "publish": 7986,
      "verona": 7987,
      "venom": 7988,
      "lodge": 7989,
      "wooing": 7990,
      "designed": 7991,
      "campaign": 7992,
      "latin": 7993,
      "derive": 7994,
      "organic": 7995,
      "forbidden": 7996,
      "rolls": 7997,
      "forswear": 7998,
      "eldest": 7999,
      "cultural": 8000,
      "sixteen": 8001,
      "circumst": 8002,
      "shooting": 8003,
      "data": 8004,
      "concerns": 8005,
      "rapier": 8006,
      "imperial": 8007,
      "causes": 8008,
      "separate": 8009,
      "discharge": 8010,
      "female": 8011,
      "selection": 8012,
      "faulconbridge": 8013,
      "maximum": 8014,
      "proposal": 8015,
      "orchard": 8016,
      "individual": 8017,
      "villanous": 8018,
      "scholarship": 8019,
      "bicycle": 8020,
      "recompense": 8021,
      "abhorson": 8022,
      "apollo": 8023,
      "umbrella": 8024,
      "global": 8025,
      "embarrass": 8026,
      "indiffer": 8027,
      "27": 8028,
      "800": 8029,
      "bac": 8030,
      "cudge": 8031,
      "derc": 8032,
      "drove": 8033,
      "frag": 8034,
      "guts": 8035,
      "ginger": 8036,
      "iba": 8037,
      "mc": 8038,
      "makest": 8039,
      "nood": 8040,
      "ope": 8041,
      "pent": 8042,
      "pierce": 8043,
      "ruff": 8044,
      "sed": 8045,
      "sess": 8046,
      "sust": 8047,
      "wot": 8048,
      "wail": 8049,
      "zero": 8050,
      "##master": 8051,
      "##cles": 8052,
      "##nd": 8053,
      "##venty": 8054,
      "##word": 8055,
      "##10": 8056,
      "thai": 8057,
      "##erous": 8058,
      "##llen": 8059,
      "##isons": 8060,
      "##itar": 8061,
      "##reh": 8062,
      "beans": 8063,
      "befall": 8064,
      "##icious": 8065,
      "##alk": 8066,
      "##imate": 8067,
      "stations": 8068,
      "sof": 8069,
      "seventy": 8070,
      "choler": 8071,
      "##cker": 8072,
      "exha": 8073,
      "frost": 8074,
      "##ulty": 8075,
      "compe": 8076,
      "##asting": 8077,
      "orn": 8078,
      "amy": 8079,
      "##iao": 8080,
      "anybody": 8081,
      "jogging": 8082,
      "##eav": 8083,
      "agenda": 8084,
      "spain": 8085,
      "roaring": 8086,
      "flag": 8087,
      "flame": 8088,
      "perse": 8089,
      "hose": 8090,
      "cox": 8091,
      "cope": 8092,
      "hiking": 8093,
      "writes": 8094,
      "lottery": 8095,
      "roommate": 8096,
      "eyed": 8097,
      "lasts": 8098,
      "idol": 8099,
      "hourly": 8100,
      "highway": 8101,
      "apace": 8102,
      "passengers": 8103,
      "endeav": 8104,
      "beget": 8105,
      "waited": 8106,
      "##cling": 8107,
      "purple": 8108,
      "signify": 8109,
      "personnel": 8110,
      "touches": 8111,
      "##ancies": 8112,
      "sleepy": 8113,
      "invoice": 8114,
      "insol": 8115,
      "provides": 8116,
      "possibility": 8117,
      "counse": 8118,
      "defy": 8119,
      "lesson": 8120,
      "visitors": 8121,
      "generous": 8122,
      "haircut": 8123,
      "reported": 8124,
      "##eteria": 8125,
      "forecast": 8126,
      "distress": 8127,
      "distemper": 8128,
      "examination": 8129,
      "cooked": 8130,
      "sights": 8131,
      "romance": 8132,
      "##ommod": 8133,
      "grandma": 8134,
      "commands": 8135,
      "royalty": 8136,
      "difficulties": 8137,
      "lodging": 8138,
      "affected": 8139,
      "continued": 8140,
      "instruction": 8141,
      "fabulous": 8142,
      "tradition": 8143,
      "tribute": 8144,
      "mutiny": 8145,
      "kingdoms": 8146,
      "alarm": 8147,
      "cockroach": 8148,
      "shrimp": 8149,
      "turk": 8150,
      "confirmation": 8151,
      "conquest": 8152,
      "dishonest": 8153,
      "owes": 8154,
      "infected": 8155,
      "groups": 8156,
      "rasc": 8157,
      "greeks": 8158,
      "funds": 8159,
      "depending": 8160,
      "junior": 8161,
      "threatening": 8162,
      "janet": 8163,
      "##xxxx": 8164,
      "lipstick": 8165,
      "accomp": 8166,
      "subscribe": 8167,
      "whitmore": 8168,
      "strangers": 8169,
      "toilet": 8170,
      "complaints": 8171,
      "fulf": 8172,
      "prophet": 8173,
      "skiing": 8174,
      "treacherous": 8175,
      "philosophy": 8176,
      "spacious": 8177,
      "lychor": 8178,
      "occupation": 8179,
      "ancestors": 8180,
      "scurvy": 8181,
      "nimble": 8182,
      "powder": 8183,
      "##ievable": 8184,
      "##quisite": 8185,
      "grandsire": 8186,
      "somewhat": 8187,
      "cafeteria": 8188,
      "dercetas": 8189,
      "exhaust": 8190,
      "lychorida": 8191,
      "bree": 8192,
      "bench": 8193,
      "gay": 8194,
      "gal": 8195,
      "hond": 8196,
      "lame": 8197,
      "mops": 8198,
      "rig": 8199,
      "rouse": 8200,
      "ravish": 8201,
      "tian": 8202,
      "tap": 8203,
      "tush": 8204,
      "tires": 8205,
      "vast": 8206,
      "wave": 8207,
      "waking": 8208,
      "wager": 8209,
      "##mission": 8210,
      "##uate": 8211,
      "##hine": 8212,
      "##ros": 8213,
      "##lin": 8214,
      "##lasting": 8215,
      "##ders": 8216,
      "##field": 8217,
      "##enced": 8218,
      "toy": 8219,
      "anth": 8220,
      "##asions": 8221,
      "infer": 8222,
      "weir": 8223,
      "sha": 8224,
      "shock": 8225,
      "dove": 8226,
      "##ims": 8227,
      "stum": 8228,
      "strate": 8229,
      "stale": 8230,
      "prior": 8231,
      "noted": 8232,
      "ligar": 8233,
      "asc": 8234,
      "asso": 8235,
      "chronic": 8236,
      "willow": 8237,
      "##ilful": 8238,
      "enforced": 8239,
      "excel": 8240,
      "exquisite": 8241,
      "kna": 8242,
      "comedy": 8243,
      "herein": 8244,
      "concept": 8245,
      "upper": 8246,
      "trench": 8247,
      "truck": 8248,
      "plum": 8249,
      "greece": 8250,
      "everlasting": 8251,
      "duked": 8252,
      "rope": 8253,
      "robe": 8254,
      "blond": 8255,
      "compact": 8256,
      "coal": 8257,
      "mustard": 8258,
      "scand": 8259,
      "richer": 8260,
      "overth": 8261,
      "##angers": 8262,
      "handling": 8263,
      "tales": 8264,
      "backward": 8265,
      "resem": 8266,
      "swears": 8267,
      "crop": 8268,
      "accidents": 8269,
      "accommod": 8270,
      "##ogn": 8271,
      "feelings": 8272,
      "slim": 8273,
      "execute": 8274,
      "thoughtful": 8275,
      "merri": 8276,
      "recogn": 8277,
      "braz": 8278,
      "posted": 8279,
      "capacity": 8280,
      "retired": 8281,
      "decre": 8282,
      "signed": 8283,
      "airmail": 8284,
      "deadline": 8285,
      "addicted": 8286,
      "bald": 8287,
      "meter": 8288,
      "mettle": 8289,
      "##azz": 8290,
      "courteous": 8291,
      "harmony": 8292,
      "expectation": 8293,
      "preparing": 8294,
      "comforts": 8295,
      "leaders": 8296,
      "youthful": 8297,
      "softly": 8298,
      "directions": 8299,
      "florence": 8300,
      "concent": 8301,
      "joining": 8302,
      "mothers": 8303,
      "seeks": 8304,
      "parker": 8305,
      "##ode": 8306,
      "infirm": 8307,
      "deeply": 8308,
      "appearance": 8309,
      "sufferance": 8310,
      "irish": 8311,
      "athlet": 8312,
      "utilities": 8313,
      "cheerful": 8314,
      "correctly": 8315,
      "assistance": 8316,
      "operate": 8317,
      "dancer": 8318,
      "hallow": 8319,
      "250": 8320,
      "mutual": 8321,
      "knocks": 8322,
      "closer": 8323,
      "drowned": 8324,
      "shadows": 8325,
      "discovered": 8326,
      "barbie": 8327,
      "nutr": 8328,
      "curtains": 8329,
      "membership": 8330,
      "dissol": 8331,
      "gloves": 8332,
      "gaze": 8333,
      "impatient": 8334,
      "rebels": 8335,
      "accursed": 8336,
      "lantern": 8337,
      "rejoice": 8338,
      "##craft": 8339,
      "filthy": 8340,
      "commonwealth": 8341,
      "moonshine": 8342,
      "flexible": 8343,
      "doublet": 8344,
      "influence": 8345,
      "aedile": 8346,
      "volunteer": 8347,
      "axe": 8348,
      "earthquake": 8349,
      "grateful": 8350,
      "giddy": 8351,
      "enrich": 8352,
      "unbelievable": 8353,
      "deputy": 8354,
      "noodles": 8355,
      "coxcom": 8356,
      "mopsa": 8357,
      "ligarius": 8358,
      "associ": 8359,
      "bounds": 8360,
      "fans": 8361,
      "hood": 8362,
      "lone": 8363,
      "latter": 8364,
      "muff": 8365,
      "nancy": 8366,
      "ost": 8367,
      "oven": 8368,
      "pc": 8369,
      "pad": 8370,
      "pence": 8371,
      "ry": 8372,
      "raz": 8373,
      "sinc": 8374,
      "sne": 8375,
      "tars": 8376,
      "umm": 8377,
      "vine": 8378,
      "##ridge": 8379,
      "##iven": 8380,
      "##kind": 8381,
      "##ocking": 8382,
      "##wart": 8383,
      "##worth": 8384,
      "toe": 8385,
      "toes": 8386,
      "##itan": 8387,
      "##itary": 8388,
      "##reet": 8389,
      "##etown": 8390,
      "##eder": 8391,
      "bew": 8392,
      "bef": 8393,
      "beams": 8394,
      "webt": 8395,
      "shamp": 8396,
      "##enth": 8397,
      "onto": 8398,
      "reci": 8399,
      "##idam": 8400,
      "lions": 8401,
      "livery": 8402,
      "soph": 8403,
      "socc": 8404,
      "##aments": 8405,
      "##verty": 8406,
      "chid": 8407,
      "##racker": 8408,
      "defe": 8409,
      "enlar": 8410,
      "kingly": 8411,
      "##gee": 8412,
      "thereby": 8413,
      "kneels": 8414,
      "fruits": 8415,
      "abbey": 8416,
      "lobby": 8417,
      "click": 8418,
      "converse": 8419,
      "upd": 8420,
      "upstairs": 8421,
      "##ooked": 8422,
      "uni": 8423,
      "plains": 8424,
      "arbit": 8425,
      "outstanding": 8426,
      "##igation": 8427,
      "evermore": 8428,
      "flint": 8429,
      "##robe": 8430,
      "booth": 8431,
      "swain": 8432,
      "madman": 8433,
      "##phere": 8434,
      "scold": 8435,
      "dizzy": 8436,
      "peer": 8437,
      "peel": 8438,
      "hip": 8439,
      "poverty": 8440,
      "##ensed": 8441,
      "chef": 8442,
      "resort": 8443,
      "acts": 8444,
      "actor": 8445,
      "meets": 8446,
      "struct": 8447,
      "warn": 8448,
      "understood": 8449,
      "mightst": 8450,
      "attorn": 8451,
      "restore": 8452,
      "indign": 8453,
      "indire": 8454,
      "heading": 8455,
      "waitress": 8456,
      "##inners": 8457,
      "tavern": 8458,
      "##anks": 8459,
      "wronged": 8460,
      "##ifully": 8461,
      "youngest": 8462,
      "freeze": 8463,
      "airline": 8464,
      "impro": 8465,
      "prett": 8466,
      "fortunate": 8467,
      "repay": 8468,
      "reproach": 8469,
      "suns": 8470,
      "musical": 8471,
      "nearer": 8472,
      "evils": 8473,
      "redress": 8474,
      "cuts": 8475,
      "burden": 8476,
      "harvest": 8477,
      "craves": 8478,
      "qualify": 8479,
      "perfection": 8480,
      "elements": 8481,
      "mortgage": 8482,
      "awfully": 8483,
      "denmark": 8484,
      "strangely": 8485,
      "##cony": 8486,
      "official": 8487,
      "cups": 8488,
      "considerate": 8489,
      "dropped": 8490,
      "garment": 8491,
      "joined": 8492,
      "exercising": 8493,
      "sadness": 8494,
      "penalty": 8495,
      "admitted": 8496,
      "infant": 8497,
      "natures": 8498,
      "15th": 8499,
      "arrival": 8500,
      "mode": 8501,
      "limited": 8502,
      "opinions": 8503,
      "roads": 8504,
      "yielded": 8505,
      "bowels": 8506,
      "riot": 8507,
      "projects": 8508,
      "##imony": 8509,
      "discussion": 8510,
      "despised": 8511,
      "flattering": 8512,
      "briefly": 8513,
      "vegetarian": 8514,
      "borrowed": 8515,
      "archidam": 8516,
      "demands": 8517,
      "##rageous": 8518,
      "reached": 8519,
      "promoted": 8520,
      "holland": 8521,
      "closes": 8522,
      "vanish": 8523,
      "economic": 8524,
      "199": 8525,
      "appetizer": 8526,
      "deceit": 8527,
      "massage": 8528,
      "railway": 8529,
      "rebu": 8530,
      "miseries": 8531,
      "hometown": 8532,
      "slightly": 8533,
      "dorm": 8534,
      "volsce": 8535,
      "reference": 8536,
      "robbery": 8537,
      "mantua": 8538,
      "electricity": 8539,
      "oxford": 8540,
      "beggars": 8541,
      "trifle": 8542,
      "perjured": 8543,
      "administration": 8544,
      "grievous": 8545,
      "seventh": 8546,
      "escape": 8547,
      "accomplish": 8548,
      "praises": 8549,
      "tools": 8550,
      "barbecue": 8551,
      "compensation": 8552,
      "integrity": 8553,
      "allegiance": 8554,
      "marvellous": 8555,
      "##clamation": 8556,
      "sustain": 8557,
      "cockroaches": 8558,
      "lonely": 8559,
      "tarsus": 8560,
      "webtracker": 8561,
      "shampoo": 8562,
      "soccer": 8563,
      "archidamus": 8564,
      "bere": 8565,
      "cad": 8566,
      "cate": 8567,
      "dv": 8568,
      "fiction": 8569,
      "gee": 8570,
      "hes": 8571,
      "hedge": 8572,
      "lous": 8573,
      "mates": 8574,
      "rar": 8575,
      "rend": 8576,
      "rites": 8577,
      "rains": 8578,
      "rhe": 8579,
      "santa": 8580,
      "tan": 8581,
      "vio": 8582,
      "vel": 8583,
      "vig": 8584,
      "wu": 8585,
      "zone": 8586,
      "##cies": 8587,
      "##here": 8588,
      "##ially": 8589,
      "##sion": 8590,
      "##liness": 8591,
      "##yard": 8592,
      "##25": 8593,
      "##atics": 8594,
      "##isions": 8595,
      "inches": 8596,
      "weed": 8597,
      "##irin": 8598,
      "##iration": 8599,
      "meg": 8600,
      "##urally": 8601,
      "##store": 8602,
      "rev": 8603,
      "rebe": 8604,
      "##idorus": 8605,
      "stout": 8606,
      "stro": 8607,
      "whate": 8608,
      "prime": 8609,
      "##adv": 8610,
      "##adena": 8611,
      "chops": 8612,
      "##ioli": 8613,
      "nope": 8614,
      "exist": 8615,
      "excess": 8616,
      "lemon": 8617,
      "##rates": 8618,
      "aberg": 8619,
      "comment": 8620,
      "amorous": 8621,
      "altern": 8622,
      "ourself": 8623,
      "consequ": 8624,
      "upright": 8625,
      "tres": 8626,
      "trous": 8627,
      "troops": 8628,
      "unlike": 8629,
      "manhood": 8630,
      "managed": 8631,
      "prover": 8632,
      "fac": 8633,
      "fires": 8634,
      "rightly": 8635,
      "##emidorus": 8636,
      "offences": 8637,
      "whereon": 8638,
      "role": 8639,
      "blouse": 8640,
      "blog": 8641,
      "adop": 8642,
      "serge": 8643,
      "cob": 8644,
      "cozen": 8645,
      "##civ": 8646,
      "riches": 8647,
      "diseas": 8648,
      "prec": 8649,
      "preced": 8650,
      "pox": 8651,
      "interp": 8652,
      "marked": 8653,
      "grind": 8654,
      "corioli": 8655,
      "contag": 8656,
      "titles": 8657,
      "grape": 8658,
      "slot": 8659,
      "artemidorus": 8660,
      "pets": 8661,
      "attain": 8662,
      "puzz": 8663,
      "##avenny": 8664,
      "sweetly": 8665,
      "southern": 8666,
      "ports": 8667,
      "curio": 8668,
      "regulations": 8669,
      "eats": 8670,
      "walt": 8671,
      "classmates": 8672,
      "pleasing": 8673,
      "decay": 8674,
      "confeder": 8675,
      "steve": 8676,
      "relations": 8677,
      "assume": 8678,
      "promote": 8679,
      "lightning": 8680,
      "hush": 8681,
      "imports": 8682,
      "listed": 8683,
      "produc": 8684,
      "returning": 8685,
      "empire": 8686,
      "burial": 8687,
      "breathed": 8688,
      "distinct": 8689,
      "illeg": 8690,
      "requite": 8691,
      "employed": 8692,
      "painful": 8693,
      "cousins": 8694,
      "excurs": 8695,
      "hortensius": 8696,
      "obst": 8697,
      "lads": 8698,
      "grandpre": 8699,
      "vacu": 8700,
      "vacant": 8701,
      "maine": 8702,
      "naturally": 8703,
      "difficulty": 8704,
      "burns": 8705,
      "sandy": 8706,
      "recommendation": 8707,
      "tourn": 8708,
      "starve": 8709,
      "labours": 8710,
      "models": 8711,
      "continent": 8712,
      "beneath": 8713,
      "suffering": 8714,
      "irre": 8715,
      "century": 8716,
      "##atively": 8717,
      "alexand": 8718,
      "utmost": 8719,
      "brands": 8720,
      "flattery": 8721,
      "passionate": 8722,
      "proceeding": 8723,
      "printed": 8724,
      "developing": 8725,
      "stealing": 8726,
      "piteous": 8727,
      "animal": 8728,
      "hideous": 8729,
      "flea": 8730,
      "vault": 8731,
      "bully": 8732,
      "greeting": 8733,
      "engineer": 8734,
      "voted": 8735,
      "matt": 8736,
      "tutor": 8737,
      "determined": 8738,
      "cuckoo": 8739,
      "ministers": 8740,
      "physician": 8741,
      "mmmm": 8742,
      "volsces": 8743,
      "negotiate": 8744,
      "beguile": 8745,
      "chemistry": 8746,
      "annoying": 8747,
      "peasant": 8748,
      "frequently": 8749,
      "mongst": 8750,
      "prodigal": 8751,
      "summers": 8752,
      "dowry": 8753,
      "workshop": 8754,
      "injuries": 8755,
      "rousillon": 8756,
      "tubal": 8757,
      "vulgar": 8758,
      "concluded": 8759,
      "garbage": 8760,
      "circumstances": 8761,
      "honda": 8762,
      "weird": 8763,
      "brazil": 8764,
      "abergavenny": 8765,
      "trousers": 8766,
      "aer": 8767,
      "bio": 8768,
      "bates": 8769,
      "dy": 8770,
      "dried": 8771,
      "dangers": 8772,
      "euph": 8773,
      "fer": 8774,
      "foster": 8775,
      "hue": 8776,
      "hounds": 8777,
      "jar": 8778,
      "jac": 8779,
      "lid": 8780,
      "mould": 8781,
      "mate": 8782,
      "pud": 8783,
      "pav": 8784,
      "pump": 8785,
      "sith": 8786,
      "sizes": 8787,
      "ties": 8788,
      "tours": 8789,
      "vass": 8790,
      "winning": 8791,
      "waked": 8792,
      "yup": 8793,
      "zounds": 8794,
      "##cock": 8795,
      "##rd": 8796,
      "##rest": 8797,
      "##iors": 8798,
      "##iquet": 8799,
      "##nish": 8800,
      "##gress": 8801,
      "##eat": 8802,
      "##eys": 8803,
      "##dney": 8804,
      "##bonius": 8805,
      "##11": 8806,
      "##oubt": 8807,
      "##oned": 8808,
      "whist": 8809,
      "whereto": 8810,
      "##ashing": 8811,
      "##oted": 8812,
      "ingrat": 8813,
      "##utch": 8814,
      "fores": 8815,
      "##iry": 8816,
      "shining": 8817,
      "shores": 8818,
      "##urous": 8819,
      "##ston": 8820,
      "rein": 8821,
      "rehe": 8822,
      "stall": 8823,
      "##ading": 8824,
      "liken": 8825,
      "severe": 8826,
      "canker": 8827,
      "asian": 8828,
      "nept": 8829,
      "negl": 8830,
      "gosh": 8831,
      "##andy": 8832,
      "defect": 8833,
      "enf": 8834,
      "enroll": 8835,
      "lev": 8836,
      "##erson": 8837,
      "uncom": 8838,
      "unex": 8839,
      "plates": 8840,
      "pledge": 8841,
      "usd": 8842,
      "blaz": 8843,
      "flock": 8844,
      "boar": 8845,
      "buzz": 8846,
      "scru": 8847,
      "diving": 8848,
      "peck": 8849,
      "guang": 8850,
      "overdra": 8851,
      "speaker": 8852,
      "belie": 8853,
      "grim": 8854,
      "backs": 8855,
      "emily": 8856,
      "##inced": 8857,
      "elvin": 8858,
      "carp": 8859,
      "charms": 8860,
      "string": 8861,
      "contains": 8862,
      "salute": 8863,
      "##inton": 8864,
      "prescribe": 8865,
      "pupp": 8866,
      "sydney": 8867,
      "trips": 8868,
      "welcom": 8869,
      "deaths": 8870,
      "lively": 8871,
      "camping": 8872,
      "curtain": 8873,
      "regent": 8874,
      "regards": 8875,
      "fewer": 8876,
      "classic": 8877,
      "dearer": 8878,
      "skating": 8879,
      "remembered": 8880,
      "trebonius": 8881,
      "repose": 8882,
      "affright": 8883,
      "discom": 8884,
      "tony": 8885,
      "bait": 8886,
      "devised": 8887,
      "trainer": 8888,
      "suitor": 8889,
      "ache": 8890,
      "clothing": 8891,
      "couples": 8892,
      "miscar": 8893,
      "flights": 8894,
      "refused": 8895,
      "smoker": 8896,
      "##aldo": 8897,
      "venus": 8898,
      "acceptable": 8899,
      "rainy": 8900,
      "storms": 8901,
      "exercises": 8902,
      "fashioned": 8903,
      "penit": 8904,
      "superior": 8905,
      "superfl": 8906,
      "sandals": 8907,
      "matches": 8908,
      "gallows": 8909,
      "figured": 8910,
      "ghosts": 8911,
      "arriving": 8912,
      "robes": 8913,
      "woful": 8914,
      "##ruption": 8915,
      "equally": 8916,
      "occasions": 8917,
      "sovereignty": 8918,
      "bandit": 8919,
      "bosoms": 8920,
      "protection": 8921,
      "balcony": 8922,
      "target": 8923,
      "rarely": 8924,
      "pulled": 8925,
      "shrink": 8926,
      "cereal": 8927,
      "ceremon": 8928,
      "licence": 8929,
      "tasty": 8930,
      "tasted": 8931,
      "combination": 8932,
      "rogues": 8933,
      "stressful": 8934,
      "certificates": 8935,
      "kneeling": 8936,
      "egyptian": 8937,
      "debts": 8938,
      "mathem": 8939,
      "cartons": 8940,
      "complaining": 8941,
      "landsca": 8942,
      "kilom": 8943,
      "conqueror": 8944,
      "dedic": 8945,
      "discharged": 8946,
      "estimation": 8947,
      "risk": 8948,
      "treachery": 8949,
      "essent": 8950,
      "chastity": 8951,
      "reckoning": 8952,
      "bungee": 8953,
      "buffet": 8954,
      "forsake": 8955,
      "expedition": 8956,
      "rebellion": 8957,
      "parson": 8958,
      "yoga": 8959,
      "obviously": 8960,
      "sinews": 8961,
      "##actory": 8962,
      "souvenirs": 8963,
      "nupt": 8964,
      "valuable": 8965,
      "insect": 8966,
      "inconvenience": 8967,
      "barbarous": 8968,
      "scandal": 8969,
      "merrily": 8970,
      "rebecca": 8971,
      "waltz": 8972,
      "likeness": 8973,
      "neptune": 8974,
      "scruple": 8975,
      "28": 8976,
      "cro": 8977,
      "drow": 8978,
      "easter": 8979,
      "ebb": 8980,
      "jot": 8981,
      "jerk": 8982,
      "nail": 8983,
      "ot": 8984,
      "pile": 8985,
      "ray": 8986,
      "rang": 8987,
      "ruth": 8988,
      "tents": 8989,
      "tatt": 8990,
      "vince": 8991,
      "yo": 8992,
      "yang": 8993,
      "##cre": 8994,
      "##romach": 8995,
      "##gas": 8996,
      "##groom": 8997,
      "##88": 8998,
      "##86": 8999,
      "##pal": 9000,
      "##jo": 9001,
      "theft": 9002,
      "##atically": 9003,
      "##arse": 9004,
      "toss": 9005,
      "andromach": 9006,
      "##itus": 9007,
      "##usi": 9008,
      "##ett": 9009,
      "##asp": 9010,
      "##otus": 9011,
      "beck": 9012,
      "shir": 9013,
      "reyn": 9014,
      "##illiant": 9015,
      "stink": 9016,
      "stove": 9017,
      "notwith": 9018,
      "liar": 9019,
      "##ardy": 9020,
      "deli": 9021,
      "deform": 9022,
      "allows": 9023,
      "lecture": 9024,
      "knowest": 9025,
      "loses": 9026,
      "amends": 9027,
      "##osphere": 9028,
      "alum": 9029,
      "sheath": 9030,
      "broo": 9031,
      "brilliant": 9032,
      "proclamation": 9033,
      "fawn": 9034,
      "feign": 9035,
      "helm": 9036,
      "lacks": 9037,
      "spotted": 9038,
      "pernic": 9039,
      "saves": 9040,
      "surety": 9041,
      "afoot": 9042,
      "covers": 9043,
      "betimes": 9044,
      "diest": 9045,
      "peak": 9046,
      "moe": 9047,
      "mocks": 9048,
      "overweight": 9049,
      "##angs": 9050,
      "pope": 9051,
      "interpre": 9052,
      "writer": 9053,
      "nightly": 9054,
      "traged": 9055,
      "residence": 9056,
      "carol": 9057,
      "carriage": 9058,
      "crimes": 9059,
      "actors": 9060,
      "stray": 9061,
      "strings": 9062,
      "eyel": 9063,
      "##gling": 9064,
      "showers": 9065,
      "grapes": 9066,
      "soundly": 9067,
      "meanest": 9068,
      "polite": 9069,
      "thirteen": 9070,
      "portion": 9071,
      "cannon": 9072,
      "brake": 9073,
      "consist": 9074,
      "curious": 9075,
      "bookstore": 9076,
      "##shire": 9077,
      "retires": 9078,
      "mush": 9079,
      "skull": 9080,
      "confl": 9081,
      "airlines": 9082,
      "angeles": 9083,
      "surgery": 9084,
      "musicians": 9085,
      "assault": 9086,
      "answering": 9087,
      "affair": 9088,
      "discord": 9089,
      "attends": 9090,
      "attendance": 9091,
      "intents": 9092,
      "intention": 9093,
      "##olley": 9094,
      "##fortable": 9095,
      "suited": 9096,
      "burger": 9097,
      "hangman": 9098,
      "specialty": 9099,
      "proposed": 9100,
      "largest": 9101,
      "landl": 9102,
      "frenchmen": 9103,
      "meddle": 9104,
      "elegant": 9105,
      "dispos": 9106,
      "heavily": 9107,
      "cashier": 9108,
      "swearing": 9109,
      "departments": 9110,
      "doubtful": 9111,
      "garlic": 9112,
      "admire": 9113,
      "varlet": 9114,
      "recommended": 9115,
      "baseball": 9116,
      "##ocate": 9117,
      "##ocation": 9118,
      "robbed": 9119,
      "respects": 9120,
      "contented": 9121,
      "convenience": 9122,
      "prevented": 9123,
      "hunger": 9124,
      "favourite": 9125,
      "pairs": 9126,
      "sharing": 9127,
      "stirring": 9128,
      "currently": 9129,
      "marching": 9130,
      "wiser": 9131,
      "collecting": 9132,
      "##going": 9133,
      "bondage": 9134,
      "purchased": 9135,
      "elected": 9136,
      "jimmy": 9137,
      "unfair": 9138,
      "grieves": 9139,
      "competitive": 9140,
      "apparently": 9141,
      "vanqu": 9142,
      "breeds": 9143,
      "executed": 9144,
      "combined": 9145,
      "alarums": 9146,
      "barely": 9147,
      "vaux": 9148,
      "floods": 9149,
      "bridegroom": 9150,
      "textbook": 9151,
      "voting": 9152,
      "deserts": 9153,
      "ragged": 9154,
      "disguise": 9155,
      "guiltless": 9156,
      "causing": 9157,
      "unkindness": 9158,
      "nobler": 9159,
      "wonders": 9160,
      "wandering": 9161,
      "verses": 9162,
      "detailed": 9163,
      "swelling": 9164,
      "atmosphere": 9165,
      "ashes": 9166,
      "surface": 9167,
      "afflict": 9168,
      "pillow": 9169,
      "hinder": 9170,
      "phoen": 9171,
      "assembly": 9172,
      "independent": 9173,
      "pulse": 9174,
      "detective": 9175,
      "initial": 9176,
      "acknowledge": 9177,
      "premium": 9178,
      "harbour": 9179,
      "moistur": 9180,
      "procedure": 9181,
      "academic": 9182,
      "historical": 9183,
      "innocence": 9184,
      "semblance": 9185,
      "pestil": 9186,
      "cicero": 9187,
      "sofa": 9188,
      "exhausted": 9189,
      "coxcomb": 9190,
      "indirect": 9191,
      "lousy": 9192,
      "strokes": 9193,
      "sergeant": 9194,
      "vacuum": 9195,
      "euphronius": 9196,
      "ingratitude": 9197,
      "andromache": 9198,
      "reynaldo": 9199,
      "notwithstanding": 9200,
      "1st": 9201,
      "29": 9202,
      "95": 9203,
      "cush": 9204,
      "cub": 9205,
      "dst": 9206,
      "dain": 9207,
      "dyn": 9208,
      "gle": 9209,
      "gum": 9210,
      "grove": 9211,
      "hare": 9212,
      "hits": 9213,
      "ib": 9214,
      "jes": 9215,
      "lag": 9216,
      "lute": 9217,
      "nourish": 9218,
      "rated": 9219,
      "rating": 9220,
      "sow": 9221,
      "sque": 9222,
      "ti": 9223,
      "tire": 9224,
      "tina": 9225,
      "tips": 9226,
      "ul": 9227,
      "volley": 9228,
      "ware": 9229,
      "wages": 9230,
      "##hh": 9231,
      "##graph": 9232,
      "##ah": 9233,
      "##lished": 9234,
      "##off": 9235,
      "##bes": 9236,
      "##bble": 9237,
      "##fied": 9238,
      "##zer": 9239,
      "##atory": 9240,
      "##lling": 9241,
      "toad": 9242,
      "toky": 9243,
      "itch": 9244,
      "beam": 9245,
      "beque": 9246,
      "##ican": 9247,
      "heating": 9248,
      "heinous": 9249,
      "##urt": 9250,
      "##urers": 9251,
      "whatsoever": 9252,
      "seated": 9253,
      "seasons": 9254,
[...]
